{
  "version": "1.0",
  "truncation": null,
  "padding": {
    "strategy": "BatchLongest",
    "direction": "Right",
    "pad_to_multiple_of": null,
    "pad_id": 0,
    "pad_type_id": 0,
    "pad_token": "[PAD]"
  },
  "added_tokens": [
    {
      "id": 0,
      "content": "[PAD]",
      "single_word": false,
      "lstrip": false,
      "rstrip": false,
      "normalized": false,
      "special": true
    },
    {
      "id": 1,
      "content": "[UNK]",
      "single_word": false,
      "lstrip": false,
      "rstrip": false,
      "normalized": false,
      "special": true
    },
    {
      "id": 2,
      "content": "[BOS]",
      "single_word": false,
      "lstrip": false,
      "rstrip": false,
      "normalized": false,
      "special": true
    },
    {
      "id": 3,
      "content": "[EOS]",
      "single_word": false,
      "lstrip": false,
      "rstrip": false,
      "normalized": false,
      "special": true
    }
  ],
  "normalizer": null,
  "pre_tokenizer": {
    "type": "Whitespace"
  },
  "post_processor": {
    "type": "TemplateProcessing",
    "single": [
      {
        "SpecialToken": {
          "id": "[BOS]",
          "type_id": 0
        }
      },
      {
        "Sequence": {
          "id": "A",
          "type_id": 0
        }
      },
      {
        "SpecialToken": {
          "id": "[EOS]",
          "type_id": 0
        }
      }
    ],
    "pair": [
      {
        "Sequence": {
          "id": "A",
          "type_id": 0
        }
      },
      {
        "Sequence": {
          "id": "B",
          "type_id": 1
        }
      }
    ],
    "special_tokens": {
      "[BOS]": {
        "id": "[BOS]",
        "ids": [
          2
        ],
        "tokens": [
          "[BOS]"
        ]
      },
      "[EOS]": {
        "id": "[EOS]",
        "ids": [
          3
        ],
        "tokens": [
          "[EOS]"
        ]
      }
    }
  },
  "decoder": null,
  "model": {
    "type": "BPE",
    "dropout": null,
    "unk_token": "[UNK]",
    "continuing_subword_prefix": "##",
    "end_of_word_suffix": null,
    "fuse_unk": false,
    "vocab": {
      "[PAD]": 0,
      "[UNK]": 1,
      "[BOS]": 2,
      "[EOS]": 3,
      "!": 4,
      "\"": 5,
      "$": 6,
      "&": 7,
      "'": 8,
      "(": 9,
      ")": 10,
      ",": 11,
      "-": 12,
      ".": 13,
      "/": 14,
      "0": 15,
      "1": 16,
      "2": 17,
      "3": 18,
      "4": 19,
      "5": 20,
      "6": 21,
      "7": 22,
      "8": 23,
      "9": 24,
      ":": 25,
      ";": 26,
      "=": 27,
      "?": 28,
      "@": 29,
      "[": 30,
      "`": 31,
      "a": 32,
      "b": 33,
      "c": 34,
      "d": 35,
      "e": 36,
      "f": 37,
      "g": 38,
      "h": 39,
      "i": 40,
      "j": 41,
      "k": 42,
      "l": 43,
      "m": 44,
      "n": 45,
      "o": 46,
      "p": 47,
      "q": 48,
      "r": 49,
      "s": 50,
      "t": 51,
      "u": 52,
      "v": 53,
      "w": 54,
      "x": 55,
      "y": 56,
      "z": 57,
      "ä": 58,
      "##i": 59,
      "##e": 60,
      "##l": 61,
      "##d": 62,
      "##r": 63,
      "##a": 64,
      "##b": 65,
      "##c": 66,
      "##u": 67,
      "##t": 68,
      "##v": 69,
      "##o": 70,
      "##n": 71,
      "##y": 72,
      "##x": 73,
      "##s": 74,
      "##p": 75,
      "##z": 76,
      "##h": 77,
      "##g": 78,
      "##w": 79,
      "##f": 80,
      "##k": 81,
      "##m": 82,
      "##2": 83,
      "##0": 84,
      "##1": 85,
      "##4": 86,
      "##8": 87,
      "##j": 88,
      "##'": 89,
      "##q": 90,
      "##3": 91,
      "##5": 92,
      "##9": 93,
      "##.": 94,
      "##;": 95,
      "##ä": 96,
      "##,": 97,
      "##6": 98,
      "##7": 99,
      "##\"": 100,
      "##/": 101,
      "##-": 102,
      "##`": 103,
      "##in": 104,
      "##ing": 105,
      "##it": 106,
      "##an": 107,
      "##er": 108,
      "th": 109,
      "##le": 110,
      "in": 111,
      "##re": 112,
      "the": 113,
      "on": 114,
      "an": 115,
      "##at": 116,
      "##ar": 117,
      "of": 118,
      "##ro": 119,
      "##ith": 120,
      "with": 121,
      "##en": 122,
      "##al": 123,
      "and": 124,
      "##om": 125,
      "st": 126,
      "##ed": 127,
      "##es": 128,
      "to": 129,
      "##ding": 130,
      "is": 131,
      "##ck": 132,
      "##on": 133,
      "##ir": 134,
      "##as": 135,
      "##or": 136,
      "##et": 137,
      "##ow": 138,
      "man": 139,
      "##ou": 140,
      "##ch": 141,
      "##is": 142,
      "##la": 143,
      "##op": 144,
      "##oo": 145,
      "##ting": 146,
      "##all": 147,
      "##il": 148,
      "sit": 149,
      "wh": 150,
      "##id": 151,
      "##el": 152,
      "##ra": 153,
      "##rou": 154,
      "tw": 155,
      "##ot": 156,
      "two": 157,
      "are": 158,
      "##ol": 159,
      "ne": 160,
      "##ers": 161,
      "wom": 162,
      "stan": 163,
      "##king": 164,
      "pe": 165,
      "##ge": 166,
      "##ic": 167,
      "##ut": 168,
      "sitting": 169,
      "at": 170,
      "sh": 171,
      "##ople": 172,
      "people": 173,
      "##ig": 174,
      "woman": 175,
      "##ite": 176,
      "be": 177,
      "##ard": 178,
      "##ying": 179,
      "##ide": 180,
      "##ab": 181,
      "bu": 182,
      "bo": 183,
      "##ad": 184,
      "standing": 185,
      "##ur": 186,
      "pla": 187,
      "##oun": 188,
      "white": 189,
      "sk": 190,
      "ch": 191,
      "do": 192,
      "##ile": 193,
      "##eb": 194,
      "##ver": 195,
      "##ass": 196,
      "##nd": 197,
      "tra": 198,
      "##able": 199,
      "##xt": 200,
      "stre": 201,
      "fro": 202,
      "ro": 203,
      "hol": 204,
      "next": 205,
      "##ts": 206,
      "street": 207,
      "##her": 208,
      "grou": 209,
      "##ce": 210,
      "##am": 211,
      "##lo": 212,
      "##ood": 213,
      "fi": 214,
      "som": 215,
      "##ack": 216,
      "table": 217,
      "##own": 218,
      "pl": 219,
      "holding": 220,
      "##ff": 221,
      "gir": 222,
      "dog": 223,
      "sm": 224,
      "##oard": 225,
      "wat": 226,
      "out": 227,
      "bl": 228,
      "##se": 229,
      "##and": 230,
      "down": 231,
      "par": 232,
      "it": 233,
      "##ach": 234,
      "some": 235,
      "group": 236,
      "bla": 237,
      "##ri": 238,
      "##oung": 239,
      "black": 240,
      "that": 241,
      "wal": 242,
      "top": 243,
      "young": 244,
      "pers": 245,
      "person": 246,
      "##nt": 247,
      "lar": 248,
      "##ue": 249,
      "large": 250,
      "his": 251,
      "la": 252,
      "##ion": 253,
      "up": 254,
      "##ear": 255,
      "##ru": 256,
      "cou": 257,
      "##ate": 258,
      "##row": 259,
      "car": 260,
      "##ul": 261,
      "##irt": 262,
      "##ke": 263,
      "red": 264,
      "front": 265,
      "sn": 266,
      "##ain": 267,
      "bat": 268,
      "##ree": 269,
      "##igh": 270,
      "##eld": 271,
      "##ss": 272,
      "cat": 273,
      "ri": 274,
      "##ve": 275,
      "pi": 276,
      "fl": 277,
      "##st": 278,
      "while": 279,
      "snow": 280,
      "field": 281,
      "gr": 282,
      "loo": 283,
      "##ell": 284,
      "blue": 285,
      "small": 286,
      "##round": 287,
      "near": 288,
      "wear": 289,
      "water": 290,
      "re": 291,
      "##ay": 292,
      "wearing": 293,
      "se": 294,
      "bas": 295,
      "##un": 296,
      "girl": 297,
      "##ple": 298,
      "##ind": 299,
      "##ant": 300,
      "playing": 301,
      "play": 302,
      "by": 303,
      "grass": 304,
      "sur": 305,
      "boy": 306,
      "##ign": 307,
      "##one": 308,
      "men": 309,
      "clo": 310,
      "##air": 311,
      "##ure": 312,
      "##side": 313,
      "walking": 314,
      "##ee": 315,
      "her": 316,
      "##ent": 317,
      "riding": 318,
      "park": 319,
      "side": 320,
      "##ild": 321,
      "bus": 322,
      "##ph": 323,
      "##ving": 324,
      "sign": 325,
      "##ink": 326,
      "##reen": 327,
      "train": 328,
      "room": 329,
      "buil": 330,
      "##ct": 331,
      "##room": 332,
      "ph": 333,
      "ten": 334,
      "for": 335,
      "##im": 336,
      "##nis": 337,
      "##um": 338,
      "building": 339,
      "##ds": 340,
      "tennis": 341,
      "child": 342,
      "surf": 343,
      "plate": 344,
      "back": 345,
      "air": 346,
      "kit": 347,
      "##ter": 348,
      "co": 349,
      "has": 350,
      "##yc": 351,
      "##board": 352,
      "bath": 353,
      "shirt": 354,
      "##eball": 355,
      "baseball": 356,
      "##ight": 357,
      "green": 358,
      "bed": 359,
      "ot": 360,
      "skat": 361,
      "##age": 362,
      "##gh": 363,
      "three": 364,
      "com": 365,
      "ball": 366,
      "po": 367,
      "food": 368,
      "##ere": 369,
      "##ycle": 370,
      "##tle": 371,
      "hor": 372,
      "looking": 373,
      "as": 374,
      "wood": 375,
      "skateb": 376,
      "mot": 377,
      "li": 378,
      "ele": 379,
      "beach": 380,
      "other": 381,
      "##ld": 382,
      "##pt": 383,
      "##zz": 384,
      "##ks": 385,
      "there": 386,
      "con": 387,
      "over": 388,
      "##ran": 389,
      "##ap": 390,
      "bathroom": 391,
      "skateboard": 392,
      "pizz": 393,
      "##ore": 394,
      "##lass": 395,
      "##get": 396,
      "##rown": 397,
      "##ie": 398,
      "ben": 399,
      "al": 400,
      "motor": 401,
      "##chen": 402,
      "kitchen": 403,
      "eat": 404,
      "##ity": 405,
      "couple": 406,
      "their": 407,
      "pizza": 408,
      "wa": 409,
      "brown": 410,
      "su": 411,
      "##ong": 412,
      "##mb": 413,
      "he": 414,
      "from": 415,
      "eleph": 416,
      "##ture": 417,
      "##ping": 418,
      "le": 419,
      "pic": 420,
      "##ame": 421,
      "outside": 422,
      "sits": 423,
      "ski": 424,
      "lit": 425,
      "int": 426,
      "sp": 427,
      "##ellow": 428,
      "dis": 429,
      "road": 430,
      "yellow": 431,
      "##ake": 432,
      "sw": 433,
      "bench": 434,
      "##ill": 435,
      "##rel": 436,
      "parked": 437,
      "##rough": 438,
      "city": 439,
      "one": 440,
      "##ine": 441,
      "##led": 442,
      "##tain": 443,
      "clock": 444,
      "hand": 445,
      "player": 446,
      "through": 447,
      "bear": 448,
      "old": 449,
      "picture": 450,
      "gra": 451,
      "sever": 452,
      "several": 453,
      "motorc": 454,
      "sl": 455,
      "toile": 456,
      "umb": 457,
      "tru": 458,
      "around": 459,
      "umbrel": 460,
      "sand": 461,
      "sc": 462,
      "ra": 463,
      "tow": 464,
      "##dy": 465,
      "##aff": 466,
      "##cks": 467,
      "glass": 468,
      "des": 469,
      "game": 470,
      "comp": 471,
      "wind": 472,
      "##em": 473,
      "little": 474,
      "##ress": 475,
      "wall": 476,
      "giraff": 477,
      "motorcycle": 478,
      "toilet": 479,
      "col": 480,
      "run": 481,
      "board": 482,
      "cl": 483,
      "##ull": 484,
      "##ane": 485,
      "##ast": 486,
      "##nder": 487,
      "##acket": 488,
      "eating": 489,
      "##sh": 490,
      "wooden": 491,
      "area": 492,
      "horse": 493,
      "wor": 494,
      "chair": 495,
      "##way": 496,
      "boat": 497,
      "##ris": 498,
      "##for": 499,
      "##est": 500,
      "laying": 501,
      "flying": 502,
      "window": 503,
      "lapt": 504,
      "sink": 505,
      "##cc": 506,
      "laptop": 507,
      "under": 508,
      "##ground": 509,
      "women": 510,
      "de": 511,
      "##ag": 512,
      "op": 513,
      "dress": 514,
      "##ady": 515,
      "zeb": 516,
      "oran": 517,
      "off": 518,
      "te": 519,
      "bi": 520,
      "##ice": 521,
      "into": 522,
      "##ak": 523,
      "##ross": 524,
      "##form": 525,
      "jum": 526,
      "ve": 527,
      "phone": 528,
      "comput": 529,
      "##ery": 530,
      "truck": 531,
      "phot": 532,
      "##ation": 533,
      "photo": 534,
      "##aking": 535,
      "##hind": 536,
      "behind": 537,
      "##ase": 538,
      "##ly": 539,
      "##ren": 540,
      "##ped": 541,
      "gu": 542,
      "so": 543,
      "##gg": 544,
      "##ants": 545,
      "fire": 546,
      "##ction": 547,
      "flo": 548,
      "bir": 549,
      "umbrella": 550,
      "cake": 551,
      "cover": 552,
      "##ses": 553,
      "##sing": 554,
      "fris": 555,
      "stop": 556,
      "##ves": 557,
      "frisb": 558,
      "suit": 559,
      "cow": 560,
      "moun": 561,
      "background": 562,
      "##ket": 563,
      "tre": 564,
      "each": 565,
      "computer": 566,
      "hat": 567,
      "##eat": 568,
      "open": 569,
      "##rt": 570,
      "##alk": 571,
      "living": 572,
      "##ale": 573,
      "stands": 574,
      "##eep": 575,
      "watch": 576,
      "close": 577,
      "airp": 578,
      "ap": 579,
      "bow": 580,
      "orange": 581,
      "##out": 582,
      "frisbee": 583,
      "toget": 584,
      "##ors": 585,
      "together": 586,
      "lot": 587,
      "ab": 588,
      "##our": 589,
      "elephant": 590,
      "di": 591,
      "##ort": 592,
      "##up": 593,
      "surfboard": 594,
      "tree": 595,
      "this": 596,
      "its": 597,
      "many": 598,
      "head": 599,
      "trees": 600,
      "children": 601,
      "##other": 602,
      "##ove": 603,
      "bowl": 604,
      "very": 605,
      "##walk": 606,
      "covered": 607,
      "another": 608,
      "cell": 609,
      "flow": 610,
      "##ich": 611,
      "cut": 612,
      "desk": 613,
      "##hing": 614,
      "##rick": 615,
      "pre": 616,
      "en": 617,
      "##do": 618,
      "go": 619,
      "##pla": 620,
      "##qu": 621,
      "##illed": 622,
      "bun": 623,
      "stand": 624,
      "sky": 625,
      "##dle": 626,
      "couch": 627,
      "mid": 628,
      "coun": 629,
      "fen": 630,
      "pie": 631,
      "dri": 632,
      "sidewalk": 633,
      "ban": 634,
      "big": 635,
      "crow": 636,
      "##ning": 637,
      "sun": 638,
      "filled": 639,
      "stu": 640,
      "##ies": 641,
      "##ub": 642,
      "kite": 643,
      "giraffe": 644,
      "show": 645,
      "boo": 646,
      "four": 647,
      "mountain": 648,
      "crowd": 649,
      "dr": 650,
      "##ni": 651,
      "oce": 652,
      "ocean": 653,
      "light": 654,
      "sheep": 655,
      "ar": 656,
      "sandw": 657,
      "court": 658,
      "hot": 659,
      "dirt": 660,
      "sandwich": 661,
      "along": 662,
      "che": 663,
      "swing": 664,
      "##les": 665,
      "br": 666,
      "inside": 667,
      "ground": 668,
      "ad": 669,
      "cam": 670,
      "ha": 671,
      "##iling": 672,
      "##ful": 673,
      "##ps": 674,
      "##etting": 675,
      "bab": 676,
      "dogs": 677,
      "displa": 678,
      "floor": 679,
      "hill": 680,
      "##iew": 681,
      "veget": 682,
      "##rying": 683,
      "##ouse": 684,
      "bike": 685,
      "##ace": 686,
      "##are": 687,
      "##ner": 688,
      "##ian": 689,
      "##yd": 690,
      "##ets": 691,
      "bird": 692,
      "lu": 693,
      "view": 694,
      "pink": 695,
      "banan": 696,
      "baby": 697,
      "skis": 698,
      "vegetable": 699,
      "hyd": 700,
      "dou": 701,
      "##rant": 702,
      "met": 703,
      "per": 704,
      "bunch": 705,
      "##ang": 706,
      "hydrant": 707,
      "fence": 708,
      "pass": 709,
      "airpl": 710,
      "tal": 711,
      "day": 712,
      "##oth": 713,
      "guy": 714,
      "display": 715,
      "mir": 716,
      "being": 717,
      "mirro": 718,
      "tall": 719,
      "wi": 720,
      "dressed": 721,
      "mirror": 722,
      "##ous": 723,
      "pro": 724,
      "middle": 725,
      "mar": 726,
      "them": 727,
      "full": 728,
      "mo": 729,
      "##ey": 730,
      "##ted": 731,
      "ref": 732,
      "mu": 733,
      "ted": 734,
      "##ras": 735,
      "teddy": 736,
      "fe": 737,
      "kid": 738,
      "anim": 739,
      "##ope": 740,
      "##ick": 741,
      "##ment": 742,
      "flowers": 743,
      "zebra": 744,
      "##ans": 745,
      "camer": 746,
      "jacket": 747,
      "##vel": 748,
      "##ruit": 749,
      "animal": 750,
      "bic": 751,
      "pain": 752,
      "tower": 753,
      "vegetables": 754,
      "##ry": 755,
      "wave": 756,
      "counter": 757,
      "grassy": 758,
      "fruit": 759,
      "##ffic": 760,
      "box": 761,
      "traffic": 762,
      "parking": 763,
      "camera": 764,
      "snowboard": 765,
      "taking": 766,
      "elephants": 767,
      "glasses": 768,
      "jumping": 769,
      "plat": 770,
      "##ult": 771,
      "horses": 772,
      "tie": 773,
      "holds": 774,
      "socc": 775,
      "racket": 776,
      "walk": 777,
      "looks": 778,
      "soccer": 779,
      "talking": 780,
      "rest": 781,
      "airplane": 782,
      "bes": 783,
      "##ble": 784,
      "running": 785,
      "vase": 786,
      "diff": 787,
      "work": 788,
      "##erent": 789,
      "hit": 790,
      "hair": 791,
      "ready": 792,
      "long": 793,
      "##ac": 794,
      "##ten": 795,
      "piece": 796,
      "different": 797,
      "cars": 798,
      "cup": 799,
      "bicycle": 800,
      "sa": 801,
      "##ated": 802,
      "##ess": 803,
      "##uring": 804,
      "cross": 805,
      "prep": 806,
      "##ool": 807,
      "ac": 808,
      "##ari": 809,
      "##iting": 810,
      "tracks": 811,
      "station": 812,
      "beside": 813,
      "##ven": 814,
      "rid": 815,
      "girls": 816,
      "plane": 817,
      "cor": 818,
      "stuff": 819,
      "lady": 820,
      "catch": 821,
      "color": 822,
      "##rol": 823,
      "im": 824,
      "##aring": 825,
      "##ade": 826,
      "hang": 827,
      "##ip": 828,
      "bag": 829,
      "ag": 830,
      "bro": 831,
      "vari": 832,
      "graz": 833,
      "across": 834,
      "##ator": 835,
      "driving": 836,
      "him": 837,
      "past": 838,
      "doing": 839,
      "lugg": 840,
      "during": 841,
      "luggage": 842,
      "##ond": 843,
      "zebras": 844,
      "##ather": 845,
      "giraffes": 846,
      "somet": 847,
      "##aper": 848,
      "above": 849,
      "something": 850,
      "stuffed": 851,
      "##lee": 852,
      "##amp": 853,
      "who": 854,
      "carrying": 855,
      "##ese": 856,
      "track": 857,
      "lo": 858,
      "watching": 859,
      "##ored": 860,
      "cle": 861,
      "pat": 862,
      "##urn": 863,
      "signs": 864,
      "##ark": 865,
      "image": 866,
      "bot": 867,
      "outdo": 868,
      "gray": 869,
      "em": 870,
      "##ball": 871,
      "pole": 872,
      "##ft": 873,
      "smiling": 874,
      "bre": 875,
      "colorful": 876,
      "pot": 877,
      "uni": 878,
      "slope": 879,
      "rac": 880,
      "perform": 881,
      "cont": 882,
      "rock": 883,
      "all": 884,
      "me": 885,
      "ste": 886,
      "or": 887,
      "##cor": 888,
      "##uts": 889,
      "rem": 890,
      "brick": 891,
      "pull": 892,
      "again": 893,
      "against": 894,
      "snowy": 895,
      "pur": 896,
      "grazing": 897,
      "app": 898,
      "ser": 899,
      "coo": 900,
      "getting": 901,
      "using": 902,
      "##ber": 903,
      "cur": 904,
      "##ust": 905,
      "toy": 906,
      "bananas": 907,
      "male": 908,
      "##iger": 909,
      "travel": 910,
      "##ading": 911,
      "##elf": 912,
      "buildings": 913,
      "working": 914,
      "##outh": 915,
      "wine": 916,
      "##las": 917,
      "att": 918,
      "##ries": 919,
      "cutting": 920,
      "throw": 921,
      "skate": 922,
      "uniform": 923,
      "bar": 924,
      "##akes": 925,
      "slee": 926,
      "hands": 927,
      "##oli": 928,
      "going": 929,
      "high": 930,
      "##fe": 931,
      "wii": 932,
      "am": 933,
      "hel": 934,
      "##ire": 935,
      "##aur": 936,
      "##ces": 937,
      "older": 938,
      "dark": 939,
      "refr": 940,
      "trick": 941,
      "body": 942,
      "boys": 943,
      "arm": 944,
      "key": 945,
      "corner": 946,
      "##rush": 947,
      "tele": 948,
      "hanging": 949,
      "don": 950,
      "fore": 951,
      "skiing": 952,
      "face": 953,
      "refriger": 954,
      "restaur": 955,
      "can": 956,
      "store": 957,
      "line": 958,
      "pit": 959,
      "basket": 960,
      "mic": 961,
      "walks": 962,
      "decor": 963,
      "restaurant": 964,
      "##stru": 965,
      "herd": 966,
      "posing": 967,
      "brocc": 968,
      "various": 969,
      "refrigerator": 970,
      "oven": 971,
      "##eng": 972,
      "broccoli": 973,
      "waiting": 974,
      "##ler": 975,
      "she": 976,
      "hom": 977,
      "##phone": 978,
      "double": 979,
      "paper": 980,
      "control": 981,
      "pol": 982,
      "door": 983,
      "keyboard": 984,
      "res": 985,
      "kites": 986,
      "empt": 987,
      "##oot": 988,
      "river": 989,
      "about": 990,
      "cows": 991,
      "remot": 992,
      "vide": 993,
      "cab": 994,
      "players": 995,
      "mouth": 996,
      "##itar": 997,
      "pitch": 998,
      "empty": 999,
      "bottle": 1000,
      "set": 1001,
      "video": 1002,
      "##te": 1003,
      "boats": 1004,
      "deck": 1005,
      "look": 1006,
      "lin": 1007,
      "busy": 1008,
      "coff": 1009,
      "toward": 1010,
      "passeng": 1011,
      "##orts": 1012,
      "rail": 1013,
      "apple": 1014,
      "coffee": 1015,
      "colored": 1016,
      "animals": 1017,
      "pair": 1018,
      "##us": 1019,
      "swinging": 1020,
      "chairs": 1021,
      "metal": 1022,
      "##di": 1023,
      "##ish": 1024,
      "like": 1025,
      "##arding": 1026,
      "##vis": 1027,
      "book": 1028,
      "##ial": 1029,
      "##oes": 1030,
      "pile": 1031,
      "contain": 1032,
      "cheese": 1033,
      "drink": 1034,
      "televis": 1035,
      "television": 1036,
      "house": 1037,
      "##pe": 1038,
      "plates": 1039,
      "num": 1040,
      "##der": 1041,
      "##ems": 1042,
      "someone": 1043,
      "kids": 1044,
      "bik": 1045,
      "fem": 1046,
      "night": 1047,
      "##bo": 1048,
      "umbrellas": 1049,
      "pulling": 1050,
      "female": 1051,
      "asian": 1052,
      "ho": 1053,
      "bright": 1054,
      "##ating": 1055,
      "meat": 1056,
      "tv": 1057,
      "##oon": 1058,
      "cabin": 1059,
      "dish": 1060,
      "purple": 1061,
      "din": 1062,
      "bedroom": 1063,
      "##oll": 1064,
      "lots": 1065,
      "##gra": 1066,
      "mon": 1067,
      "##ive": 1068,
      "stove": 1069,
      "surfer": 1070,
      "##ty": 1071,
      "topped": 1072,
      "rides": 1073,
      "traveling": 1074,
      "home": 1075,
      "remote": 1076,
      "ramp": 1077,
      "##ones": 1078,
      "##ases": 1079,
      "skateboarder": 1080,
      "af": 1081,
      "lying": 1082,
      "##iss": 1083,
      "gather": 1084,
      "spe": 1085,
      "rain": 1086,
      "##gs": 1087,
      "##anc": 1088,
      "shop": 1089,
      "##ance": 1090,
      "##ights": 1091,
      "##idge": 1092,
      "swim": 1093,
      "##jo": 1094,
      "ex": 1095,
      "making": 1096,
      "plays": 1097,
      "birds": 1098,
      "preparing": 1099,
      "##alf": 1100,
      "row": 1101,
      "un": 1102,
      "##ced": 1103,
      "##arm": 1104,
      "sil": 1105,
      "bears": 1106,
      "##ection": 1107,
      "surround": 1108,
      "cart": 1109,
      "motorcycles": 1110,
      "enjo": 1111,
      "##ny": 1112,
      "##ist": 1113,
      "photogra": 1114,
      "stri": 1115,
      "mat": 1116,
      "suitc": 1117,
      "surrounded": 1118,
      "pa": 1119,
      "##aning": 1120,
      "lake": 1121,
      "sleeping": 1122,
      "##sp": 1123,
      "##ents": 1124,
      "items": 1125,
      "mult": 1126,
      "no": 1127,
      "blond": 1128,
      "##hic": 1129,
      "##ily": 1130,
      "##los": 1131,
      "inters": 1132,
      "vehic": 1133,
      "decker": 1134,
      "gi": 1135,
      "##eel": 1136,
      "##ric": 1137,
      "##ved": 1138,
      "runway": 1139,
      "intersection": 1140,
      "tan": 1141,
      "##ings": 1142,
      "##raw": 1143,
      "enc": 1144,
      "outdoor": 1145,
      "hu": 1146,
      "blan": 1147,
      "foot": 1148,
      "##ash": 1149,
      "gre": 1150,
      "sal": 1151,
      "screen": 1152,
      "airport": 1153,
      "##ron": 1154,
      "adult": 1155,
      "number": 1156,
      "blanket": 1157,
      "jet": 1158,
      "stat": 1159,
      "dough": 1160,
      "##uce": 1161,
      "stone": 1162,
      "clou": 1163,
      "skier": 1164,
      "##quet": 1165,
      "shower": 1166,
      "enclos": 1167,
      "new": 1168,
      "carro": 1169,
      "gol": 1170,
      "lea": 1171,
      "je": 1172,
      "##by": 1173,
      "half": 1174,
      "surfing": 1175,
      "brush": 1176,
      "few": 1177,
      "##een": 1178,
      "cloth": 1179,
      "guitar": 1180,
      "cre": 1181,
      "##lic": 1182,
      "lights": 1183,
      "tile": 1184,
      "tray": 1185,
      "reading": 1186,
      "market": 1187,
      "silver": 1188,
      "photograph": 1189,
      "made": 1190,
      "tub": 1191,
      "stick": 1192,
      "shorts": 1193,
      "##iz": 1194,
      "slic": 1195,
      "pu": 1196,
      "##ime": 1197,
      "jumps": 1198,
      "meal": 1199,
      "lined": 1200,
      "##cl": 1201,
      "##ert": 1202,
      "scen": 1203,
      "have": 1204,
      "performing": 1205,
      "ont": 1206,
      "painted": 1207,
      "mouse": 1208,
      "ob": 1209,
      "##aut": 1210,
      "##lder": 1211,
      "slice": 1212,
      "forest": 1213,
      "doughn": 1214,
      "##struction": 1215,
      "##oc": 1216,
      "##ching": 1217,
      "showing": 1218,
      "banana": 1219,
      "pan": 1220,
      "sing": 1221,
      "##pp": 1222,
      "##inking": 1223,
      "sub": 1224,
      "path": 1225,
      "throwing": 1226,
      "##ming": 1227,
      "books": 1228,
      "seat": 1229,
      "##astic": 1230,
      "passenger": 1231,
      "##etw": 1232,
      "shown": 1233,
      "smile": 1234,
      "team": 1235,
      "onto": 1236,
      "pants": 1237,
      "way": 1238,
      "kn": 1239,
      "##dd": 1240,
      "##less": 1241,
      "helm": 1242,
      "betw": 1243,
      "kni": 1244,
      "##art": 1245,
      "dock": 1246,
      "batter": 1247,
      "flower": 1248,
      "drinking": 1249,
      "having": 1250,
      "painting": 1251,
      "pool": 1252,
      "post": 1253,
      "construction": 1254,
      "between": 1255,
      "pill": 1256,
      "zoo": 1257,
      "##ling": 1258,
      "bal": 1259,
      "fam": 1260,
      "##eath": 1261,
      "fork": 1262,
      "bread": 1263,
      "monit": 1264,
      "they": 1265,
      "crossing": 1266,
      "fla": 1267,
      "squ": 1268,
      "towards": 1269,
      "racquet": 1270,
      "donuts": 1271,
      "pub": 1272,
      "coat": 1273,
      "enclosure": 1274,
      "##end": 1275,
      "beaut": 1276,
      "decorated": 1277,
      "rocks": 1278,
      "public": 1279,
      "##je": 1280,
      "plastic": 1281,
      "sciss": 1282,
      "##sc": 1283,
      "prepare": 1284,
      "salad": 1285,
      "stage": 1286,
      "coming": 1287,
      "scissors": 1288,
      "##glass": 1289,
      "tooth": 1290,
      "leaning": 1291,
      "scene": 1292,
      "beauti": 1293,
      "cap": 1294,
      "suitcase": 1295,
      "statue": 1296,
      "jeans": 1297,
      "knife": 1298,
      "bridge": 1299,
      "enjoying": 1300,
      "##sed": 1301,
      "##ition": 1302,
      "mountains": 1303,
      "multi": 1304,
      "ey": 1305,
      "ty": 1306,
      "bel": 1307,
      "##ave": 1308,
      "##ti": 1309,
      "eng": 1310,
      "band": 1311,
      "conc": 1312,
      "clim": 1313,
      "sunny": 1314,
      "family": 1315,
      "##glasses": 1316,
      "elect": 1317,
      "##hers": 1318,
      "striped": 1319,
      "ed": 1320,
      "##vers": 1321,
      "##ges": 1322,
      "##ley": 1323,
      "pick": 1324,
      "sweat": 1325,
      "grey": 1326,
      "carrots": 1327,
      "beautiful": 1328,
      "##its": 1329,
      "incl": 1330,
      "shap": 1331,
      "after": 1332,
      "gar": 1333,
      "ride": 1334,
      "cabinets": 1335,
      "##ched": 1336,
      "not": 1337,
      "##day": 1338,
      "trail": 1339,
      "##aching": 1340,
      "count": 1341,
      "tri": 1342,
      "turn": 1343,
      "##ally": 1344,
      "lay": 1345,
      "microw": 1346,
      "furn": 1347,
      "##iture": 1348,
      "furniture": 1349,
      "##ugh": 1350,
      "outf": 1351,
      "##ired": 1352,
      "helmet": 1353,
      "cook": 1354,
      "microwave": 1355,
      "##ix": 1356,
      "comm": 1357,
      "sunglasses": 1358,
      "workers": 1359,
      "pillow": 1360,
      "inclu": 1361,
      "bran": 1362,
      "##th": 1363,
      "stair": 1364,
      "##ached": 1365,
      "waves": 1366,
      "##atoes": 1367,
      "meter": 1368,
      "gathered": 1369,
      "edge": 1370,
      "branch": 1371,
      "displayed": 1372,
      "clean": 1373,
      "cand": 1374,
      "ice": 1375,
      "shore": 1376,
      "dist": 1377,
      "cooking": 1378,
      "swimming": 1379,
      "micro": 1380,
      "apples": 1381,
      "fri": 1382,
      "skiers": 1383,
      "resting": 1384,
      "yard": 1385,
      "##ug": 1386,
      "##py": 1387,
      "watches": 1388,
      "birt": 1389,
      "pictures": 1390,
      "race": 1391,
      "climb": 1392,
      "been": 1393,
      "fruits": 1394,
      "cloudy": 1395,
      "birth": 1396,
      "setting": 1397,
      "seen": 1398,
      "cost": 1399,
      "office": 1400,
      "carri": 1401,
      "others": 1402,
      "leaves": 1403,
      "birthday": 1404,
      "costum": 1405,
      "##iti": 1406,
      "bul": 1407,
      "plant": 1408,
      "glo": 1409,
      "time": 1410,
      "beer": 1411,
      "bags": 1412,
      "ass": 1413,
      "gear": 1414,
      "just": 1415,
      "##sic": 1416,
      "##int": 1417,
      "choc": 1418,
      "buses": 1419,
      "lush": 1420,
      "feed": 1421,
      "attached": 1422,
      "vehicle": 1423,
      "##ject": 1424,
      "##anes": 1425,
      "five": 1426,
      "bush": 1427,
      "windows": 1428,
      "gold": 1429,
      "chocol": 1430,
      "##als": 1431,
      "guys": 1432,
      "hitting": 1433,
      "bikes": 1434,
      "ca": 1435,
      "ent": 1436,
      "fac": 1437,
      "stack": 1438,
      "wheel": 1439,
      "pieces": 1440,
      "football": 1441,
      "fre": 1442,
      "runs": 1443,
      "outdoors": 1444,
      "art": 1445,
      "fries": 1446,
      "ur": 1447,
      "##pes": 1448,
      "walls": 1449,
      "jump": 1450,
      "##ancing": 1451,
      "push": 1452,
      "chocolate": 1453,
      "equ": 1454,
      "lad": 1455,
      "cats": 1456,
      "##ement": 1457,
      "oranges": 1458,
      "music": 1459,
      "graff": 1460,
      "refle": 1461,
      "##os": 1462,
      "cellphone": 1463,
      "police": 1464,
      "country": 1465,
      "away": 1466,
      "trying": 1467,
      "##wn": 1468,
      "##chool": 1469,
      "graffiti": 1470,
      "mil": 1471,
      "put": 1472,
      "tom": 1473,
      "##ini": 1474,
      "monitor": 1475,
      "pad": 1476,
      "take": 1477,
      "wr": 1478,
      "neck": 1479,
      "dire": 1480,
      "arms": 1481,
      "draw": 1482,
      "school": 1483,
      "wild": 1484,
      "pen": 1485,
      "##ety": 1486,
      "snowboarder": 1487,
      "platform": 1488,
      "sty": 1489,
      "##rap": 1490,
      "lap": 1491,
      "##tered": 1492,
      "##ycl": 1493,
      "moving": 1494,
      "clothes": 1495,
      "but": 1496,
      "van": 1497,
      "vases": 1498,
      "wet": 1499,
      "##ook": 1500,
      "topping": 1501,
      "surfboards": 1502,
      "equip": 1503,
      "land": 1504,
      "wed": 1505,
      "##neath": 1506,
      "underneath": 1507,
      "stopped": 1508,
      "basketball": 1509,
      "case": 1510,
      "##irts": 1511,
      "clear": 1512,
      "cream": 1513,
      "nice": 1514,
      "##oarding": 1515,
      "##pack": 1516,
      "shot": 1517,
      "tables": 1518,
      "surface": 1519,
      "skateboarding": 1520,
      "break": 1521,
      "assort": 1522,
      "roll": 1523,
      "##bor": 1524,
      "##que": 1525,
      "crowded": 1526,
      "wire": 1527,
      "subway": 1528,
      "kind": 1529,
      "##ail": 1530,
      "distance": 1531,
      "##ides": 1532,
      "woods": 1533,
      "compet": 1534,
      "backpack": 1535,
      "right": 1536,
      "##he": 1537,
      "smo": 1538,
      "##ults": 1539,
      "left": 1540,
      "elder": 1541,
      "hard": 1542,
      "adults": 1543,
      "##ract": 1544,
      "placed": 1545,
      "dining": 1546,
      "cent": 1547,
      "takes": 1548,
      "##man": 1549,
      "flat": 1550,
      "##elling": 1551,
      "haired": 1552,
      "passing": 1553,
      "pitcher": 1554,
      "##vent": 1555,
      "##mp": 1556,
      "boards": 1557,
      "ce": 1558,
      "mach": 1559,
      "##de": 1560,
      "##bs": 1561,
      "shelf": 1562,
      "##ound": 1563,
      "trun": 1564,
      "sandy": 1565,
      "feet": 1566,
      "catcher": 1567,
      "equipment": 1568,
      "##ists": 1569,
      "##othing": 1570,
      "pepp": 1571,
      "clothing": 1572,
      "smiles": 1573,
      "blo": 1574,
      "fall": 1575,
      "plants": 1576,
      "base": 1577,
      "dirty": 1578,
      "sauce": 1579,
      "##ession": 1580,
      "appear": 1581,
      "elderly": 1582,
      "roo": 1583,
      "appl": 1584,
      "##head": 1585,
      "##road": 1586,
      "shirts": 1587,
      "hotel": 1588,
      "multiple": 1589,
      "carriage": 1590,
      "rug": 1591,
      "shou": 1592,
      "##ural": 1593,
      "nearby": 1594,
      "##ures": 1595,
      "concre": 1596,
      "make": 1597,
      "##ins": 1598,
      "prof": 1599,
      "concrete": 1600,
      "fish": 1601,
      "ind": 1602,
      "##cking": 1603,
      "short": 1604,
      "shows": 1605,
      "dry": 1606,
      "railroad": 1607,
      "dinner": 1608,
      "slices": 1609,
      "fresh": 1610,
      "qu": 1611,
      "was": 1612,
      "##ats": 1613,
      "offic": 1614,
      "match": 1615,
      "below": 1616,
      "wedding": 1617,
      "both": 1618,
      "win": 1619,
      "##uit": 1620,
      "##let": 1621,
      "read": 1622,
      "##phones": 1623,
      "poin": 1624,
      "laptops": 1625,
      "##brush": 1626,
      "##ser": 1627,
      "##els": 1628,
      "mother": 1629,
      "perched": 1630,
      "boxes": 1631,
      "donut": 1632,
      "toppings": 1633,
      "##ines": 1634,
      "##ely": 1635,
      "chur": 1636,
      "fly": 1637,
      "shaped": 1638,
      "hi": 1639,
      "pul": 1640,
      "poles": 1641,
      "hotdo": 1642,
      "loc": 1643,
      "among": 1644,
      "doughnuts": 1645,
      "church": 1646,
      "end": 1647,
      "nin": 1648,
      "ped": 1649,
      "pack": 1650,
      "well": 1651,
      "##ary": 1652,
      "spoon": 1653,
      "teen": 1654,
      "pret": 1655,
      "##ronic": 1656,
      "electronic": 1657,
      "outfit": 1658,
      "del": 1659,
      "event": 1660,
      "instru": 1661,
      "alone": 1662,
      "controller": 1663,
      "ear": 1664,
      "rack": 1665,
      "##av": 1666,
      "##set": 1667,
      "poses": 1668,
      "##tendo": 1669,
      "bull": 1670,
      "direction": 1671,
      "center": 1672,
      "applian": 1673,
      "profession": 1674,
      "nintendo": 1675,
      "du": 1676,
      "pract": 1677,
      "eaten": 1678,
      "##ized": 1679,
      "pulled": 1680,
      "cla": 1681,
      "lamp": 1682,
      "##ned": 1683,
      "##xing": 1684,
      "##fa": 1685,
      "todd": 1686,
      "part": 1687,
      "##ions": 1688,
      "bowls": 1689,
      "fenced": 1690,
      "moder": 1691,
      "curb": 1692,
      "containing": 1693,
      "pretty": 1694,
      "modern": 1695,
      "dancing": 1696,
      "ham": 1697,
      "##br": 1698,
      "##nic": 1699,
      "stru": 1700,
      "staring": 1701,
      "shoes": 1702,
      "##cture": 1703,
      "town": 1704,
      "##emp": 1705,
      "giant": 1706,
      "toothbrush": 1707,
      "engine": 1708,
      "cra": 1709,
      "##ied": 1710,
      "##lers": 1711,
      "##cial": 1712,
      "where": 1713,
      "laugh": 1714,
      "phones": 1715,
      "benches": 1716,
      "##place": 1717,
      "served": 1718,
      "tank": 1719,
      "stairs": 1720,
      "putting": 1721,
      "class": 1722,
      "##ger": 1723,
      "place": 1724,
      "form": 1725,
      "##ape": 1726,
      "clut": 1727,
      "huge": 1728,
      "sticking": 1729,
      "microphone": 1730,
      "roof": 1731,
      "professional": 1732,
      "fun": 1733,
      "legs": 1734,
      "teet": 1735,
      "sandwiches": 1736,
      "climbing": 1737,
      "jo": 1738,
      "tran": 1739,
      "we": 1740,
      "inter": 1741,
      "beard": 1742,
      "chick": 1743,
      "pose": 1744,
      "skateboards": 1745,
      "curtain": 1746,
      "let": 1747,
      "##val": 1748,
      "##ony": 1749,
      "sweater": 1750,
      "including": 1751,
      "egg": 1752,
      "gam": 1753,
      "##me": 1754,
      "##unch": 1755,
      "sofa": 1756,
      "suits": 1757,
      "mud": 1758,
      "steps": 1759,
      "square": 1760,
      "bushes": 1761,
      "chicken": 1762,
      "##ips": 1763,
      "##iness": 1764,
      "##ower": 1765,
      "flies": 1766,
      "reaching": 1767,
      "stud": 1768,
      "arran": 1769,
      "bicycles": 1770,
      "sail": 1771,
      "racing": 1772,
      "pedest": 1773,
      "teeth": 1774,
      "card": 1775,
      "wrap": 1776,
      "##bb": 1777,
      "does": 1778,
      "business": 1779,
      "##aked": 1780,
      "hats": 1781,
      "rocky": 1782,
      "toddler": 1783,
      "feat": 1784,
      "farm": 1785,
      "kick": 1786,
      "##irc": 1787,
      "##ican": 1788,
      "##ical": 1789,
      "trucks": 1790,
      "drives": 1791,
      "passengers": 1792,
      "drinks": 1793,
      "single": 1794,
      "acc": 1795,
      "cement": 1796,
      "##ban": 1797,
      "##cing": 1798,
      "design": 1799,
      "##ages": 1800,
      "doughnut": 1801,
      "lays": 1802,
      "style": 1803,
      "##ious": 1804,
      "##tub": 1805,
      "##fore": 1806,
      "##edge": 1807,
      "beds": 1808,
      "amer": 1809,
      "object": 1810,
      "costume": 1811,
      "appliances": 1812,
      "circ": 1813,
      "fo": 1814,
      "which": 1815,
      "atop": 1816,
      "before": 1817,
      "lawn": 1818,
      "disc": 1819,
      "mounted": 1820,
      "cute": 1821,
      "catching": 1822,
      "serving": 1823,
      "types": 1824,
      "get": 1825,
      "same": 1826,
      "##ium": 1827,
      "##vid": 1828,
      "##ays": 1829,
      "overl": 1830,
      "##rash": 1831,
      "steel": 1832,
      "machine": 1833,
      "##iff": 1834,
      "##ward": 1835,
      "##anding": 1836,
      "sho": 1837,
      "seated": 1838,
      "##gging": 1839,
      "dishes": 1840,
      "hay": 1841,
      "##alm": 1842,
      "##ork": 1843,
      "##elves": 1844,
      "picnic": 1845,
      "dev": 1846,
      "bottles": 1847,
      "##armac": 1848,
      "tiled": 1849,
      "eyes": 1850,
      "gard": 1851,
      "hood": 1852,
      "##owing": 1853,
      "party": 1854,
      "cattle": 1855,
      "pizzas": 1856,
      "variety": 1857,
      "feeding": 1858,
      "garden": 1859,
      "fr": 1860,
      "tur": 1861,
      "##top": 1862,
      "rider": 1863,
      "prepares": 1864,
      "tomatoes": 1865,
      "vest": 1866,
      "##uc": 1867,
      "##ged": 1868,
      "tour": 1869,
      "surfers": 1870,
      "bathtub": 1871,
      "balloon": 1872,
      "##itary": 1873,
      "tricks": 1874,
      "overloo": 1875,
      "ledge": 1876,
      "net": 1877,
      "##be": 1878,
      "foods": 1879,
      "swings": 1880,
      "flag": 1881,
      "rice": 1882,
      "six": 1883,
      "##li": 1884,
      "##tom": 1885,
      "##ctor": 1886,
      "fireplace": 1887,
      "##boy": 1888,
      "candles": 1889,
      "hap": 1890,
      "##ends": 1891,
      "##rum": 1892,
      "rais": 1893,
      "opp": 1894,
      "computers": 1895,
      "floating": 1896,
      "uniforms": 1897,
      "ter": 1898,
      "tarmac": 1899,
      "##per": 1900,
      "##read": 1901,
      "##ates": 1902,
      "railing": 1903,
      "##aken": 1904,
      "vehicles": 1905,
      "kneel": 1906,
      "pushing": 1907,
      "appears": 1908,
      "makes": 1909,
      "selling": 1910,
      "trash": 1911,
      "##tis": 1912,
      "anti": 1913,
      "##ular": 1914,
      "cowboy": 1915,
      "container": 1916,
      "cabinet": 1917,
      "trunk": 1918,
      "lone": 1919,
      "round": 1920,
      "##land": 1921,
      "##ray": 1922,
      "##vertis": 1923,
      "rela": 1924,
      "sea": 1925,
      "wooded": 1926,
      "cooked": 1927,
      "structure": 1928,
      "says": 1929,
      "tent": 1930,
      "taken": 1931,
      "##ual": 1932,
      "##ering": 1933,
      "indi": 1934,
      "advertis": 1935,
      "attemp": 1936,
      "afric": 1937,
      "reflection": 1938,
      "american": 1939,
      "cakes": 1940,
      "lam": 1941,
      "mess": 1942,
      "##light": 1943,
      "##ators": 1944,
      "colors": 1945,
      "##rist": 1946,
      "sinks": 1947,
      "mod": 1948,
      "worker": 1949,
      "hole": 1950,
      "military": 1951,
      "##yclist": 1952,
      "games": 1953,
      "drum": 1954,
      "figh": 1955,
      "##self": 1956,
      "##rop": 1957,
      "shirtless": 1958,
      "pos": 1959,
      "polar": 1960,
      "shopping": 1961,
      "facing": 1962,
      "har": 1963,
      "lunch": 1964,
      "##ns": 1965,
      "##ments": 1966,
      "##ches": 1967,
      "closed": 1968,
      "eats": 1969,
      "pillows": 1970,
      "laughing": 1971,
      "pedestri": 1972,
      "fra": 1973,
      "gate": 1974,
      "pas": 1975,
      "##ered": 1976,
      "##ence": 1977,
      "stall": 1978,
      "strol": 1979,
      "tou": 1980,
      "##adow": 1981,
      "slide": 1982,
      "check": 1983,
      "himself": 1984,
      "performs": 1985,
      "appro": 1986,
      "winter": 1987,
      "cluttered": 1988,
      "fur": 1989,
      "straw": 1990,
      "##rench": 1991,
      "##tens": 1992,
      "##boarding": 1993,
      "newsp": 1994,
      "practic": 1995,
      "fridge": 1996,
      "vint": 1997,
      "##ise": 1998,
      "boarding": 1999,
      "leap": 2000,
      "spr": 2001,
      "desert": 2002,
      "docked": 2003,
      "reads": 2004,
      "lett": 2005,
      "antique": 2006,
      "pasture": 2007,
      "vintage": 2008,
      "##inal": 2009,
      "##ative": 2010,
      "##ckey": 2011,
      "chop": 2012,
      "grill": 2013,
      "trains": 2014,
      "skating": 2015,
      "leash": 2016,
      "walkway": 2017,
      "drawn": 2018,
      "ext": 2019,
      "sol": 2020,
      "##sert": 2021,
      "##ercial": 2022,
      "##ato": 2023,
      "##ung": 2024,
      "pots": 2025,
      "brushing": 2026,
      "commercial": 2027,
      "overlooking": 2028,
      "african": 2029,
      "sale": 2030,
      "##yard": 2031,
      "things": 2032,
      "indo": 2033,
      "stor": 2034,
      "stain": 2035,
      "what": 2036,
      "dessert": 2037,
      "chef": 2038,
      "prop": 2039,
      "load": 2040,
      "garb": 2041,
      "falling": 2042,
      "hotdog": 2043,
      "cru": 2044,
      "med": 2045,
      "ret": 2046,
      "##ne": 2047,
      "##ym": 2048,
      "##iny": 2049,
      "##asing": 2050,
      "scul": 2051,
      "bottom": 2052,
      "wrapped": 2053,
      "individ": 2054,
      "french": 2055,
      "ju": 2056,
      "rope": 2057,
      "sou": 2058,
      "use": 2059,
      "wide": 2060,
      "##ia": 2061,
      "##iding": 2062,
      "planes": 2063,
      "see": 2064,
      "convers": 2065,
      "controllers": 2066,
      "giving": 2067,
      "golf": 2068,
      "sliced": 2069,
      "pointing": 2070,
      "ble": 2071,
      "cas": 2072,
      "fig": 2073,
      "gent": 2074,
      "mini": 2075,
      "nap": 2076,
      "rust": 2077,
      "ties": 2078,
      "vis": 2079,
      "##az": 2080,
      "##ests": 2081,
      "buck": 2082,
      "chin": 2083,
      "chain": 2084,
      "cour": 2085,
      "towel": 2086,
      "couches": 2087,
      "potatoes": 2088,
      "foreground": 2089,
      "speed": 2090,
      "shoulder": 2091,
      "model": 2092,
      "war": 2093,
      "##pet": 2094,
      "##fast": 2095,
      "##ken": 2096,
      "##ooter": 2097,
      "ship": 2098,
      "bur": 2099,
      "stret": 2100,
      "restroom": 2101,
      "enjoy": 2102,
      "singing": 2103,
      "friends": 2104,
      "stacked": 2105,
      "fis": 2106,
      "jers": 2107,
      "pup": 2108,
      "sill": 2109,
      "##mas": 2110,
      "star": 2111,
      "##issing": 2112,
      "##allow": 2113,
      "doors": 2114,
      "streets": 2115,
      "##aches": 2116,
      "upside": 2117,
      "##apers": 2118,
      "supp": 2119,
      "scooter": 2120,
      "colle": 2121,
      "sheet": 2122,
      "eye": 2123,
      "writing": 2124,
      "breakfast": 2125,
      "block": 2126,
      "practicing": 2127,
      "dra": 2128,
      "fanc": 2129,
      "gym": 2130,
      "landing": 2131,
      "port": 2132,
      "tat": 2133,
      "vend": 2134,
      "##ib": 2135,
      "##house": 2136,
      "##mer": 2137,
      "##red": 2138,
      "##ils": 2139,
      "hillside": 2140,
      "airplanes": 2141,
      "prod": 2142,
      "purse": 2143,
      "highway": 2144,
      "spect": 2145,
      "exp": 2146,
      "ladies": 2147,
      "newspaper": 2148,
      "sculpt": 2149,
      "jersey": 2150,
      "au": 2151,
      "bare": 2152,
      "fash": 2153,
      "good": 2154,
      "low": 2155,
      "mix": 2156,
      "vol": 2157,
      "wets": 2158,
      "##des": 2159,
      "##ging": 2160,
      "ang": 2161,
      "##arf": 2162,
      "##ump": 2163,
      "leather": 2164,
      "pres": 2165,
      "boots": 2166,
      "paw": 2167,
      "glove": 2168,
      "fashion": 2169,
      "dig": 2170,
      "free": 2171,
      "onions": 2172,
      "##ons": 2173,
      "##aster": 2174,
      "skirt": 2175,
      "christ": 2176,
      "pipe": 2177,
      "rep": 2178,
      "kitten": 2179,
      "space": 2180,
      "sports": 2181,
      "sunset": 2182,
      "paint": 2183,
      "cups": 2184,
      "serve": 2185,
      "gloves": 2186,
      "assortment": 2187,
      "gentle": 2188,
      "fancy": 2189,
      "deep": 2190,
      "##icks": 2191,
      "##act": 2192,
      "##ital": 2193,
      "parti": 2194,
      "snowboarding": 2195,
      "life": 2196,
      "riders": 2197,
      "assorted": 2198,
      "partially": 2199,
      "gets": 2200,
      "##ded": 2201,
      "##fl": 2202,
      "neat": 2203,
      "splas": 2204,
      "closeup": 2205,
      "broken": 2206,
      "suitcases": 2207,
      "smoke": 2208,
      "pepper": 2209,
      "happy": 2210,
      "christmas": 2211,
      "ump": 2212,
      "##lebr": 2213,
      "##ident": 2214,
      "##ations": 2215,
      "talks": 2216,
      "corn": 2217,
      "rests": 2218,
      "celebr": 2219,
      "soup": 2220,
      "pr": 2221,
      "pond": 2222,
      "##ike": 2223,
      "##ees": 2224,
      "bever": 2225,
      "chasing": 2226,
      "stream": 2227,
      "works": 2228,
      "apart": 2229,
      "rainy": 2230,
      "urban": 2231,
      "kneeling": 2232,
      "volley": 2233,
      "foll": 2234,
      "tied": 2235,
      "##ring": 2236,
      "pee": 2237,
      "hold": 2238,
      "playground": 2239,
      "lies": 2240,
      "toilets": 2241,
      "cleaning": 2242,
      "orn": 2243,
      "hugging": 2244,
      "electric": 2245,
      "enter": 2246,
      "writ": 2247,
      "position": 2248,
      "sprink": 2249,
      "spectators": 2250,
      "held": 2251,
      "mag": 2252,
      "uses": 2253,
      "##cting": 2254,
      "##so": 2255,
      "##arrow": 2256,
      "##alle": 2257,
      "carpet": 2258,
      "##cted": 2259,
      "mound": 2260,
      "cupc": 2261,
      "toys": 2262,
      "paddle": 2263,
      "##avy": 2264,
      "stainless": 2265,
      "course": 2266,
      "wetsuit": 2267,
      "pans": 2268,
      "utens": 2269,
      "##da": 2270,
      "parade": 2271,
      "##key": 2272,
      "flip": 2273,
      "bathing": 2274,
      "vegg": 2275,
      "floors": 2276,
      "pulls": 2277,
      "ceiling": 2278,
      "vendor": 2279,
      "umpire": 2280,
      "lab": 2281,
      "##io": 2282,
      "##erry": 2283,
      "bei": 2284,
      "spray": 2285,
      "scarf": 2286,
      "boarder": 2287,
      "dep": 2288,
      "heads": 2289,
      "headphones": 2290,
      "log": 2291,
      "pave": 2292,
      "foun": 2293,
      "mas": 2294,
      "pour": 2295,
      "papers": 2296,
      "sy": 2297,
      "##lin": 2298,
      "only": 2299,
      "##oni": 2300,
      "##ouses": 2301,
      "flight": 2302,
      "cliff": 2303,
      "golden": 2304,
      "peppers": 2305,
      "students": 2306,
      "device": 2307,
      "lettuce": 2308,
      "pavement": 2309,
      "fountain": 2310,
      "doll": 2311,
      "fol": 2312,
      "petting": 2313,
      "##co": 2314,
      "##gon": 2315,
      "##kes": 2316,
      "stad": 2317,
      "tool": 2318,
      "##icol": 2319,
      "plaid": 2320,
      "pier": 2321,
      "cond": 2322,
      "leans": 2323,
      "dead": 2324,
      "multicol": 2325,
      "clouds": 2326,
      "flags": 2327,
      "type": 2328,
      "garage": 2329,
      "stadium": 2330,
      "narrow": 2331,
      "##cts": 2332,
      "##too": 2333,
      "##oe": 2334,
      "##na": 2335,
      "carries": 2336,
      "##anta": 2337,
      "balls": 2338,
      "skies": 2339,
      "##shirt": 2340,
      "##ggles": 2341,
      "pastries": 2342,
      "contains": 2343,
      "##scape": 2344,
      "prepared": 2345,
      "ladder": 2346,
      "competition": 2347,
      "shovel": 2348,
      "tattoo": 2349,
      "sculpture": 2350,
      "cage": 2351,
      "gla": 2352,
      "rural": 2353,
      "ta": 2354,
      "##nel": 2355,
      "shallow": 2356,
      "flor": 2357,
      "comfor": 2358,
      "soda": 2359,
      "throws": 2360,
      "helping": 2361,
      "kinds": 2362,
      "instruments": 2363,
      "pedestrians": 2364,
      "fishing": 2365,
      "volleyball": 2366,
      "beige": 2367,
      "bou": 2368,
      "baked": 2369,
      "cal": 2370,
      "cig": 2371,
      "lid": 2372,
      "palm": 2373,
      "sides": 2374,
      "##bble": 2375,
      "##full": 2376,
      "##ining": 2377,
      "##ens": 2378,
      "sto": 2379,
      "##lage": 2380,
      "here": 2381,
      "motorb": 2382,
      "photos": 2383,
      "mart": 2384,
      "steam": 2385,
      "doorway": 2386,
      "bikini": 2387,
      "balc": 2388,
      "turned": 2389,
      "features": 2390,
      "bucket": 2391,
      "audi": 2392,
      "multicolored": 2393,
      "##fully": 2394,
      "fest": 2395,
      "por": 2396,
      "##bile": 2397,
      "##ness": 2398,
      "##med": 2399,
      "##ars": 2400,
      "stool": 2401,
      "##cked": 2402,
      "shadow": 2403,
      "smart": 2404,
      "lift": 2405,
      "wait": 2406,
      "spot": 2407,
      "goat": 2408,
      "booth": 2409,
      "potted": 2410,
      "brightly": 2411,
      "sweatshirt": 2412,
      "includes": 2413,
      "officer": 2414,
      "relaxing": 2415,
      "messy": 2416,
      "touching": 2417,
      "garbage": 2418,
      "fashioned": 2419,
      "bite": 2420,
      "houses": 2421,
      "power": 2422,
      "santa": 2423,
      "##aks": 2424,
      "##zer": 2425,
      "##gre": 2426,
      "##wing": 2427,
      "##kin": 2428,
      "goes": 2429,
      "drive": 2430,
      "##aret": 2431,
      "meters": 2432,
      "canoe": 2433,
      "decorative": 2434,
      "monitors": 2435,
      "indian": 2436,
      "arranged": 2437,
      "written": 2438,
      "utensils": 2439,
      "floral": 2440,
      "used": 2441,
      "##ier": 2442,
      "##use": 2443,
      "##ush": 2444,
      "##mo": 2445,
      "skin": 2446,
      "chips": 2447,
      "sliding": 2448,
      "goal": 2449,
      "mush": 2450,
      "rackets": 2451,
      "sheets": 2452,
      "carrot": 2453,
      "trailer": 2454,
      "musician": 2455,
      "##osite": 2456,
      "teenag": 2457,
      "attempting": 2458,
      "gentleman": 2459,
      "veggies": 2460,
      "cigaret": 2461,
      "audience": 2462,
      "action": 2463,
      "dance": 2464,
      "kay": 2465,
      "sort": 2466,
      "tail": 2467,
      "##ton": 2468,
      "##zed": 2469,
      "site": 2470,
      "sem": 2471,
      "comple": 2472,
      "leg": 2473,
      "clocks": 2474,
      "desktop": 2475,
      "bride": 2476,
      "prot": 2477,
      "project": 2478,
      "males": 2479,
      "branches": 2480,
      "##yclists": 2481,
      "transp": 2482,
      "loaded": 2483,
      "mushroom": 2484,
      "cool": 2485,
      "da": 2486,
      "fin": 2487,
      "father": 2488,
      "lis": 2489,
      "rol": 2490,
      "son": 2491,
      "self": 2492,
      "##case": 2493,
      "these": 2494,
      "##ster": 2495,
      "beneath": 2496,
      "spread": 2497,
      "flock": 2498,
      "saf": 2499,
      "attire": 2500,
      "hosp": 2501,
      "candle": 2502,
      "costumes": 2503,
      "trans": 2504,
      "eggs": 2505,
      "kicking": 2506,
      "approaching": 2507,
      "##allen": 2508,
      "balcony": 2509,
      "cigarette": 2510,
      "hospital": 2511,
      "fing": 2512,
      "fast": 2513,
      "mit": 2514,
      "talk": 2515,
      "still": 2516,
      "##ices": 2517,
      "ath": 2518,
      "shade": 2519,
      "plain": 2520,
      "rode": 2521,
      "paras": 2522,
      "ripe": 2523,
      "leading": 2524,
      "arts": 2525,
      "must": 2526,
      "pasta": 2527,
      "hockey": 2528,
      "tomato": 2529,
      "muddy": 2530,
      "opposite": 2531,
      "indoor": 2532,
      "fir": 2533,
      "fab": 2534,
      "how": 2535,
      "lim": 2536,
      "siz": 2537,
      "##ival": 2538,
      "##ng": 2539,
      "##pher": 2540,
      "##ances": 2541,
      "##ough": 2542,
      "##opes": 2543,
      "char": 2544,
      "wagon": 2545,
      "coll": 2546,
      "nose": 2547,
      "smoking": 2548,
      "should": 2549,
      "stroller": 2550,
      "blender": 2551,
      "apartment": 2552,
      "##liner": 2553,
      "transit": 2554,
      "..": 2555,
      "emb": 2556,
      "fa": 2557,
      "sized": 2558,
      "vi": 2559,
      "warm": 2560,
      "##ield": 2561,
      "##line": 2562,
      "##pping": 2563,
      "stare": 2564,
      "##eds": 2565,
      "island": 2566,
      "##ette": 2567,
      "fixing": 2568,
      "waters": 2569,
      "tops": 2570,
      "sec": 2571,
      "seag": 2572,
      "built": 2573,
      "aslee": 2574,
      "overhead": 2575,
      "alley": 2576,
      "waits": 2577,
      "goggles": 2578,
      "stunt": 2579,
      "cupboard": 2580,
      "patter": 2581,
      "posted": 2582,
      "commut": 2583,
      "electronics": 2584,
      "frame": 2585,
      "conversation": 2586,
      "gymn": 2587,
      "produce": 2588,
      "festival": 2589,
      "seagull": 2590,
      "asleep": 2591,
      "hall": 2592,
      "pin": 2593,
      "tag": 2594,
      "##ible": 2595,
      "##atting": 2596,
      "steep": 2597,
      "shelves": 2598,
      "blur": 2599,
      "blowing": 2600,
      "younger": 2601,
      "smaller": 2602,
      "##ental": 2603,
      "bending": 2604,
      "##akers": 2605,
      "adj": 2606,
      "snowboards": 2607,
      "baskets": 2608,
      "rows": 2609,
      "outfits": 2610,
      "milk": 2611,
      "landscape": 2612,
      "officers": 2613,
      "martial": 2614,
      "porch": 2615,
      "fabric": 2616,
      "act": 2617,
      "fallen": 2618,
      "hear": 2619,
      "ran": 2620,
      "##minal": 2621,
      "##ord": 2622,
      "##very": 2623,
      "wears": 2624,
      "apron": 2625,
      "bank": 2626,
      "barn": 2627,
      "telephone": 2628,
      "remotes": 2629,
      "lines": 2630,
      "gathering": 2631,
      "##ended": 2632,
      "balloons": 2633,
      "terminal": 2634,
      "suppl": 2635,
      "beverage": 2636,
      "mask": 2637,
      "glazed": 2638,
      "rodeo": 2639,
      "first": 2640,
      "bent": 2641,
      "even": 2642,
      "gro": 2643,
      "if": 2644,
      "##aw": 2645,
      "##ues": 2646,
      "##und": 2647,
      "##og": 2648,
      "##po": 2649,
      "##erial": 2650,
      "toss": 2651,
      "toast": 2652,
      "##ried": 2653,
      "snack": 2654,
      "##aged": 2655,
      "soft": 2656,
      "covering": 2657,
      "goats": 2658,
      "midair": 2659,
      "mug": 2660,
      "graze": 2661,
      "paved": 2662,
      "obser": 2663,
      "cafe": 2664,
      "urin": 2665,
      "washing": 2666,
      "deli": 2667,
      "delic": 2668,
      "soldi": 2669,
      "ornate": 2670,
      "entertain": 2671,
      "semi": 2672,
      "safety": 2673,
      "supplies": 2674,
      "ahead": 2675,
      "den": 2676,
      "ow": 2677,
      "pine": 2678,
      "tape": 2679,
      "wre": 2680,
      "##ddle": 2681,
      "##ature": 2682,
      "stra": 2683,
      "##ird": 2684,
      "blow": 2685,
      "sep": 2686,
      "spin": 2687,
      "handle": 2688,
      "towels": 2689,
      "displaying": 2690,
      "saus": 2691,
      "pastry": 2692,
      "teams": 2693,
      "cookies": 2694,
      "curtains": 2695,
      "raised": 2696,
      "propell": 2697,
      "chinese": 2698,
      "repair": 2699,
      "motorbike": 2700,
      "mushrooms": 2701,
      "crou": 2702,
      "cust": 2703,
      "eith": 2704,
      "##if": 2705,
      "##ware": 2706,
      "##arate": 2707,
      "horns": 2708,
      "##rance": 2709,
      "##ggy": 2710,
      "most": 2711,
      "exc": 2712,
      "exh": 2713,
      "bald": 2714,
      "directions": 2715,
      "juice": 2716,
      "tools": 2717,
      "mitt": 2718,
      "either": 2719,
      "aw": 2720,
      "fan": 2721,
      "gl": 2722,
      "rub": 2723,
      "sim": 2724,
      "tu": 2725,
      "vests": 2726,
      "wings": 2727,
      "##ef": 2728,
      "##dition": 2729,
      "##bed": 2730,
      "##com": 2731,
      "##time": 2732,
      "##sting": 2733,
      "##hed": 2734,
      "##fts": 2735,
      "without": 2736,
      "beg": 2737,
      "watering": 2738,
      "##ently": 2739,
      "also": 2740,
      "pictured": 2741,
      "##ways": 2742,
      "oper": 2743,
      "hits": 2744,
      "artist": 2745,
      "vanity": 2746,
      "fighting": 2747,
      "present": 2748,
      "neatly": 2749,
      "tax": 2750,
      "transport": 2751,
      "custom": 2752,
      "##ditional": 2753,
      "fans": 2754,
      "hers": 2755,
      "kissing": 2756,
      "nood": 2757,
      "##bow": 2758,
      "inf": 2759,
      "ingre": 2760,
      "onl": 2761,
      "##ending": 2762,
      "string": 2763,
      "beans": 2764,
      "buff": 2765,
      "chest": 2766,
      "personal": 2767,
      "section": 2768,
      "cons": 2769,
      "skateboarders": 2770,
      "dresser": 2771,
      "crosswalk": 2772,
      "hangs": 2773,
      "##dients": 2774,
      "fried": 2775,
      "fighter": 2776,
      "harbor": 2777,
      "chopped": 2778,
      "castle": 2779,
      "pepperoni": 2780,
      "listen": 2781,
      "ingredients": 2782,
      "dim": 2783,
      "fake": 2784,
      "hur": 2785,
      "ligh": 2786,
      "mop": 2787,
      "odd": 2788,
      "##pen": 2789,
      "##work": 2790,
      "##mon": 2791,
      "roses": 2792,
      "libr": 2793,
      "hills": 2794,
      "muse": 2795,
      "jackets": 2796,
      "aged": 2797,
      "patio": 2798,
      "piled": 2799,
      "##boat": 2800,
      "swims": 2801,
      "great": 2802,
      "blankets": 2803,
      "competing": 2804,
      "trunks": 2805,
      "instrument": 2806,
      "visible": 2807,
      "commuter": 2808,
      "library": 2809,
      "bra": 2810,
      "cer": 2811,
      "cone": 2812,
      "cub": 2813,
      "fil": 2814,
      "groom": 2815,
      "ram": 2816,
      "tun": 2817,
      "##lish": 2818,
      "##cra": 2819,
      "onion": 2820,
      "##ath": 2821,
      "##etch": 2822,
      "siting": 2823,
      "##ids": 2824,
      "neon": 2825,
      "traditional": 2826,
      "frosting": 2827,
      "persons": 2828,
      "laid": 2829,
      "##ctive": 2830,
      "liqu": 2831,
      "sport": 2832,
      "##aker": 2833,
      "alongside": 2834,
      "passes": 2835,
      "remo": 2836,
      "resident": 2837,
      "pitching": 2838,
      "containers": 2839,
      "concert": 2840,
      "wheels": 2841,
      "rolling": 2842,
      "wires": 2843,
      "hotdogs": 2844,
      "arrange": 2845,
      "cardboard": 2846,
      "individu": 2847,
      "cupcakes": 2848,
      "pouring": 2849,
      "delicious": 2850,
      "museum": 2851,
      "dun": 2852,
      "mass": 2853,
      "rear": 2854,
      "tab": 2855,
      "tight": 2856,
      "us": 2857,
      "##ior": 2858,
      "##uits": 2859,
      "##esting": 2860,
      "plan": 2861,
      "opened": 2862,
      "itself": 2863,
      "moves": 2864,
      "sailing": 2865,
      "##essor": 2866,
      "memb": 2867,
      "##usk": 2868,
      "hose": 2869,
      "shape": 2870,
      "butter": 2871,
      "##ooked": 2872,
      "clay": 2873,
      "toothbrushes": 2874,
      "urinals": 2875,
      "herself": 2876,
      "onlook": 2877,
      "residential": 2878,
      "calm": 2879,
      "grow": 2880,
      "loung": 2881,
      "mom": 2882,
      "tiny": 2883,
      "##ral": 2884,
      "##bur": 2885,
      "##cue": 2886,
      "##nding": 2887,
      "thin": 2888,
      "##rounding": 2889,
      "parach": 2890,
      "surrounding": 2891,
      "signal": 2892,
      "backyard": 2893,
      "heavy": 2894,
      "cold": 2895,
      "checking": 2896,
      "ador": 2897,
      "whole": 2898,
      "foreign": 2899,
      "enclosed": 2900,
      "pickup": 2901,
      "classroom": 2902,
      "##lives": 2903,
      "strawber": 2904,
      "puppy": 2905,
      "follow": 2906,
      "selfie": 2907,
      "stares": 2908,
      "evening": 2909,
      "wrest": 2910,
      "exhib": 2911,
      "cycle": 2912,
      "dem": 2913,
      "far": 2914,
      "hum": 2915,
      "mac": 2916,
      "olives": 2917,
      "pet": 2918,
      "tries": 2919,
      "tire": 2920,
      "##uss": 2921,
      "##hood": 2922,
      "##made": 2923,
      "thum": 2924,
      "##rot": 2925,
      "##omot": 2926,
      "sharing": 2927,
      "##urf": 2928,
      "##amic": 2929,
      "grand": 2930,
      "##ured": 2931,
      "cuts": 2932,
      "mobile": 2933,
      "matching": 2934,
      "leaf": 2935,
      "poster": 2936,
      "picking": 2937,
      "friend": 2938,
      "locomot": 2939,
      "packed": 2940,
      "ducks": 2941,
      "circle": 2942,
      "story": 2943,
      "individual": 2944,
      "musicians": 2945,
      "shoulders": 2946,
      "range": 2947,
      "groc": 2948,
      "arrangement": 2949,
      "individuals": 2950,
      "aut": 2951,
      "el": 2952,
      "own": 2953,
      "tast": 2954,
      "weat": 2955,
      "##dling": 2956,
      "##hill": 2957,
      "##arp": 2958,
      "##ront": 2959,
      "##ility": 2960,
      "neigh": 2961,
      "shiny": 2962,
      "item": 2963,
      "carni": 2964,
      "flown": 2965,
      "reaches": 2966,
      "seems": 2967,
      "podi": 2968,
      "driver": 2969,
      "arch": 2970,
      "thems": 2971,
      "travels": 2972,
      "decorations": 2973,
      "homem": 2974,
      "bikers": 2975,
      "exam": 2976,
      "gives": 2977,
      "booksh": 2978,
      "belt": 2979,
      "entrance": 2980,
      "indic": 2981,
      "hiking": 2982,
      "located": 2983,
      "duck": 2984,
      "formal": 2985,
      "drums": 2986,
      "daugh": 2987,
      "blurry": 2988,
      "lighting": 2989,
      "##craft": 2990,
      "onlookers": 2991,
      "locomotive": 2992,
      "weather": 2993,
      "carnival": 2994,
      "podium": 2995,
      "dump": 2996,
      "fair": 2997,
      "foc": 2998,
      "mural": 2999,
      "ori": 3000,
      "##ited": 3001,
      "tong": 3002,
      "##olin": 3003,
      "grilled": 3004,
      "lead": 3005,
      "##illing": 3006,
      "gravel": 3007,
      "dresses": 3008,
      "mark": 3009,
      "married": 3010,
      "platter": 3011,
      "loading": 3012,
      "meet": 3013,
      "barbe": 3014,
      "##ished": 3015,
      "rainbow": 3016,
      "silh": 3017,
      "tiles": 3018,
      "trays": 3019,
      "helmets": 3020,
      "noteb": 3021,
      "microsc": 3022,
      "##borhood": 3023,
      "teenage": 3024,
      "bearded": 3025,
      "turning": 3026,
      "advertising": 3027,
      "advertisement": 3028,
      "checkered": 3029,
      "digging": 3030,
      "collar": 3031,
      "heart": 3032,
      "straight": 3033,
      "propeller": 3034,
      "taxi": 3035,
      "noodles": 3036,
      "listening": 3037,
      "exhibit": 3038,
      "neighborhood": 3039,
      "themselves": 3040,
      "homemade": 3041,
      "tongue": 3042,
      "bit": 3043,
      "bri": 3044,
      "bak": 3045,
      "cop": 3046,
      "cran": 3047,
      "cases": 3048,
      "ketch": 3049,
      "ma": 3050,
      "move": 3051,
      "puts": 3052,
      "pony": 3053,
      "sla": 3054,
      "trol": 3055,
      "you": 3056,
      "##uff": 3057,
      "##tor": 3058,
      "##vy": 3059,
      "##gan": 3060,
      "##wood": 3061,
      "thrown": 3062,
      "toaster": 3063,
      "twin": 3064,
      "##ute": 3065,
      "##ount": 3066,
      "coach": 3067,
      "cones": 3068,
      "susp": 3069,
      "motorcyclist": 3070,
      "scaff": 3071,
      "runner": 3072,
      "clown": 3073,
      "##gged": 3074,
      "bunk": 3075,
      "snowboarders": 3076,
      "curled": 3077,
      "dishw": 3078,
      "photographer": 3079,
      "statues": 3080,
      "##jects": 3081,
      "faces": 3082,
      "rolls": 3083,
      "formation": 3084,
      "leaping": 3085,
      "paws": 3086,
      "freezer": 3087,
      "splash": 3088,
      "protest": 3089,
      "buffet": 3090,
      "tunnel": 3091,
      "liquid": 3092,
      "daughter": 3093,
      "silhou": 3094,
      "bakery": 3095,
      "scaffol": 3096,
      "bac": 3097,
      "dot": 3098,
      "gas": 3099,
      "lond": 3100,
      "main": 3101,
      "##cess": 3102,
      "##town": 3103,
      "##go": 3104,
      "##fting": 3105,
      "##men": 3106,
      "stee": 3107,
      "##chair": 3108,
      "atten": 3109,
      "sniff": 3110,
      "greens": 3111,
      "motion": 3112,
      "raft": 3113,
      "winds": 3114,
      "muff": 3115,
      "patch": 3116,
      "order": 3117,
      "controls": 3118,
      "biker": 3119,
      "balancing": 3120,
      "button": 3121,
      "hambur": 3122,
      "##bbles": 3123,
      "attempts": 3124,
      "rusted": 3125,
      "mixed": 3126,
      "roller": 3127,
      "adjus": 3128,
      "sausage": 3129,
      "presentation": 3130,
      "ceramic": 3131,
      "tabby": 3132,
      "ketchup": 3133,
      "dishwas": 3134,
      "london": 3135,
      "danc": 3136,
      "ge": 3137,
      "ple": 3138,
      "sled": 3139,
      "sets": 3140,
      "york": 3141,
      "##rat": 3142,
      "##ined": 3143,
      "##illa": 3144,
      "##eling": 3145,
      "##ebo": 3146,
      "frost": 3147,
      "##str": 3148,
      "backs": 3149,
      "aircraft": 3150,
      "posed": 3151,
      "float": 3152,
      "diving": 3153,
      "banner": 3154,
      "bunches": 3155,
      "mirrors": 3156,
      "crosses": 3157,
      "capt": 3158,
      "paddling": 3159,
      "hik": 3160,
      "accessor": 3161,
      "shoe": 3162,
      "lamb": 3163,
      "crust": 3164,
      "return": 3165,
      "collection": 3166,
      "sprinkles": 3167,
      "bouquet": 3168,
      "##most": 3169,
      "athlet": 3170,
      "cupboards": 3171,
      "hallway": 3172,
      "lounging": 3173,
      "microscope": 3174,
      "bacon": 3175,
      "steeple": 3176,
      "dishwasher": 3177,
      "baking": 3178,
      "cr": 3179,
      "cro": 3180,
      "gun": 3181,
      "map": 3182,
      "missing": 3183,
      "nic": 3184,
      "pay": 3185,
      "ring": 3186,
      "wash": 3187,
      "##ll": 3188,
      "##ws": 3189,
      "##front": 3190,
      "start": 3191,
      "##oned": 3192,
      "downhill": 3193,
      "downtown": 3194,
      "##rier": 3195,
      "##ells": 3196,
      "licking": 3197,
      "almost": 3198,
      "waving": 3199,
      "lean": 3200,
      "desc": 3201,
      "opening": 3202,
      "marble": 3203,
      "organ": 3204,
      "puddle": 3205,
      "##thy": 3206,
      "feeder": 3207,
      "designed": 3208,
      "circular": 3209,
      "foil": 3210,
      "devices": 3211,
      "leaps": 3212,
      "magn": 3213,
      "embra": 3214,
      "violin": 3215,
      "seagulls": 3216,
      "infant": 3217,
      "oriental": 3218,
      "accessories": 3219,
      "\".": 3220,
      "boun": 3221,
      "calf": 3222,
      "eight": 3223,
      "gaz": 3224,
      "jets": 3225,
      "mall": 3226,
      "more": 3227,
      "sings": 3228,
      "##lit": 3229,
      "##bers": 3230,
      "##xed": 3231,
      "sticks": 3232,
      "##eter": 3233,
      "shru": 3234,
      "##abit": 3235,
      "carts": 3236,
      "flood": 3237,
      "grin": 3238,
      "forward": 3239,
      "covers": 3240,
      "ware": 3241,
      "super": 3242,
      "skiis": 3243,
      "motorcyclists": 3244,
      "club": 3245,
      "##vely": 3246,
      "countertop": 3247,
      "catches": 3248,
      "numer": 3249,
      "speaks": 3250,
      "unus": 3251,
      "unmade": 3252,
      "objects": 3253,
      "seats": 3254,
      "climbs": 3255,
      "local": 3256,
      "cards": 3257,
      "discuss": 3258,
      "hoodie": 3259,
      "terra": 3260,
      "chained": 3261,
      "syst": 3262,
      "comforter": 3263,
      "finger": 3264,
      "mustard": 3265,
      "patterned": 3266,
      "mostly": 3267,
      "cree": 3268,
      "fed": 3269,
      "habit": 3270,
      "lang": 3271,
      "naked": 3272,
      "pri": 3273,
      "sum": 3274,
      "wit": 3275,
      "##pan": 3276,
      "##zen": 3277,
      "##hol": 3278,
      "stir": 3279,
      "##orting": 3280,
      "##isting": 3281,
      "##icem": 3282,
      "shining": 3283,
      "bubbles": 3284,
      "holder": 3285,
      "fixt": 3286,
      "tents": 3287,
      "##umin": 3288,
      "kitty": 3289,
      "leag": 3290,
      "spar": 3291,
      "slow": 3292,
      "jumbo": 3293,
      "brit": 3294,
      "step": 3295,
      "serv": 3296,
      "series": 3297,
      "army": 3298,
      "canop": 3299,
      "matt": 3300,
      "silverware": 3301,
      "squatting": 3302,
      "turns": 3303,
      "rugby": 3304,
      "makeup": 3305,
      "practice": 3306,
      "funny": 3307,
      "jockey": 3308,
      "tourists": 3309,
      "lamps": 3310,
      "chefs": 3311,
      "figur": 3312,
      "miniature": 3313,
      "splashing": 3314,
      "folded": 3315,
      "size": 3316,
      "softball": 3317,
      "demon": 3318,
      "grocery": 3319,
      "windsurf": 3320,
      "frosted": 3321,
      "nicely": 3322,
      "langu": 3323,
      "aerial": 3324,
      "bin": 3325,
      "cu": 3326,
      "ger": 3327,
      "goo": 3328,
      "had": 3329,
      "hip": 3330,
      "iron": 3331,
      "nur": 3332,
      "pir": 3333,
      "sad": 3334,
      "tack": 3335,
      "##ient": 3336,
      "##van": 3337,
      "##seb": 3338,
      "within": 3339,
      "peace": 3340,
      "##icip": 3341,
      "shel": 3342,
      "robe": 3343,
      "##here": 3344,
      "##stac": 3345,
      "recor": 3346,
      "seven": 3347,
      "airliner": 3348,
      "elev": 3349,
      "wading": 3350,
      "heading": 3351,
      "roadway": 3352,
      "sandals": 3353,
      "scale": 3354,
      "##aste": 3355,
      "soap": 3356,
      "frisbees": 3357,
      "bowling": 3358,
      "chewing": 3359,
      "prote": 3360,
      "images": 3361,
      "potato": 3362,
      "rails": 3363,
      "speaking": 3364,
      "unc": 3365,
      "jew": 3366,
      "obstac": 3367,
      "staircase": 3368,
      "urinal": 3369,
      "pushes": 3370,
      "freshly": 3371,
      "points": 3372,
      "##serts": 3373,
      "craft": 3374,
      "designs": 3375,
      "raising": 3376,
      "figure": 3377,
      "driveway": 3378,
      "teenager": 3379,
      "massive": 3380,
      "tasty": 3381,
      "hamburger": 3382,
      "system": 3383,
      "habitat": 3384,
      "league": 3385,
      "bm": 3386,
      "bru": 3387,
      "bell": 3388,
      "biting": 3389,
      "cot": 3390,
      "dust": 3391,
      "gri": 3392,
      "hung": 3393,
      "jap": 3394,
      "jung": 3395,
      "lane": 3396,
      "nat": 3397,
      "name": 3398,
      "press": 3399,
      "tin": 3400,
      "ut": 3401,
      "youth": 3402,
      "##drop": 3403,
      "##cy": 3404,
      "##ners": 3405,
      "##za": 3406,
      "##ka": 3407,
      "##ina": 3408,
      "##erness": 3409,
      "##attered": 3410,
      "##alley": 3411,
      "stran": 3412,
      "tor": 3413,
      "pean": 3414,
      "shaking": 3415,
      "tractor": 3416,
      "someones": 3417,
      "rec": 3418,
      "backdrop": 3419,
      "cobble": 3420,
      "horseb": 3421,
      "conf": 3422,
      "conne": 3423,
      "waff": 3424,
      "dispen": 3425,
      "desserts": 3426,
      "guard": 3427,
      "cellphones": 3428,
      "chees": 3429,
      "themed": 3430,
      "bicyclist": 3431,
      "meadow": 3432,
      "help": 3433,
      "policem": 3434,
      "numbers": 3435,
      "knit": 3436,
      "planter": 3437,
      "musical": 3438,
      "wilderness": 3439,
      "hardwood": 3440,
      "hiding": 3441,
      "amongst": 3442,
      "student": 3443,
      "relax": 3444,
      "indoors": 3445,
      "baref": 3446,
      "goods": 3447,
      "prin": 3448,
      "transportation": 3449,
      "hurdle": 3450,
      "growing": 3451,
      "notebook": 3452,
      "scaffolding": 3453,
      "canopy": 3454,
      "mattress": 3455,
      "demonstr": 3456,
      "japan": 3457,
      "jungle": 3458,
      "horseback": 3459,
      "bill": 3460,
      "cel": 3461,
      "cast": 3462,
      "esc": 3463,
      "id": 3464,
      "icing": 3465,
      "ki": 3466,
      "kiss": 3467,
      "rap": 3468,
      "tus": 3469,
      "##iv": 3470,
      "##iet": 3471,
      "##spe": 3472,
      "thick": 3473,
      "inv": 3474,
      "infl": 3475,
      "##rope": 3476,
      "##orm": 3477,
      "plaza": 3478,
      "rob": 3479,
      "##loy": 3480,
      "sele": 3481,
      "seas": 3482,
      "##ument": 3483,
      "slopes": 3484,
      "boardwalk": 3485,
      "word": 3486,
      "stops": 3487,
      "##quets": 3488,
      "marching": 3489,
      "cooks": 3490,
      "sleeve": 3491,
      "amid": 3492,
      "amount": 3493,
      "females": 3494,
      "newly": 3495,
      "leaving": 3496,
      "slicing": 3497,
      "balances": 3498,
      "toothp": 3499,
      "reflected": 3500,
      "drawer": 3501,
      "quiet": 3502,
      "hooded": 3503,
      "##ucet": 3504,
      "pedestrian": 3505,
      "furry": 3506,
      "following": 3507,
      "skinned": 3508,
      "teenagers": 3509,
      "faucet": 3510,
      "trolley": 3511,
      "sniffing": 3512,
      "magnets": 3513,
      "cobblest": 3514,
      "tusks": 3515,
      "cyclist": 3516,
      "eu": 3517,
      "nest": 3518,
      "navy": 3519,
      "rad": 3520,
      "tee": 3521,
      "wing": 3522,
      "##aving": 3523,
      "##ta": 3524,
      "##pies": 3525,
      "##gress": 3526,
      "##mar": 3527,
      "third": 3528,
      "##asting": 3529,
      "sharp": 3530,
      "bund": 3531,
      "placing": 3532,
      "somew": 3533,
      "groups": 3534,
      "##rial": 3535,
      "laund": 3536,
      "redhead": 3537,
      "sne": 3538,
      "reach": 3539,
      "closet": 3540,
      "comes": 3541,
      "point": 3542,
      "suv": 3543,
      "lemon": 3544,
      "slight": 3545,
      "slides": 3546,
      "words": 3547,
      "tea": 3548,
      "studi": 3549,
      "courtyard": 3550,
      "progress": 3551,
      "mov": 3552,
      "racquets": 3553,
      "sleeps": 3554,
      "helps": 3555,
      "strip": 3556,
      "brushes": 3557,
      "subur": 3558,
      "knee": 3559,
      "coats": 3560,
      "##ught": 3561,
      "neckla": 3562,
      "indust": 3563,
      "interior": 3564,
      "featuring": 3565,
      "celebrating": 3566,
      "print": 3567,
      "depot": 3568,
      "shoveling": 3569,
      "second": 3570,
      "gymnast": 3571,
      "soldier": 3572,
      "entertainment": 3573,
      "dimly": 3574,
      "focus": 3575,
      "suspended": 3576,
      "pirate": 3577,
      "natural": 3578,
      "dispenser": 3579,
      "barefoot": 3580,
      "studio": 3581,
      "cere": 3582,
      "dom": 3583,
      "every": 3584,
      "fat": 3585,
      "hut": 3586,
      "loun": 3587,
      "pop": 3588,
      "tap": 3589,
      "wel": 3590,
      "##yl": 3591,
      "##zy": 3592,
      "##my": 3593,
      "than": 3594,
      "inspe": 3595,
      "##oping": 3596,
      "beef": 3597,
      "##iled": 3598,
      "##aming": 3599,
      "blind": 3600,
      "upward": 3601,
      "batting": 3602,
      "heal": 3603,
      "scru": 3604,
      "scoot": 3605,
      "scattered": 3606,
      "stoplight": 3607,
      "sunlight": 3608,
      "arri": 3609,
      "arrow": 3610,
      "towering": 3611,
      "performer": 3612,
      "steak": 3613,
      "curly": 3614,
      "bars": 3615,
      "barrel": 3616,
      "monkey": 3617,
      "rowing": 3618,
      "knees": 3619,
      "flowered": 3620,
      "stacks": 3621,
      "##ails": 3622,
      "dryer": 3623,
      "hammer": 3624,
      "classic": 3625,
      "lambs": 3626,
      "framed": 3627,
      "peeled": 3628,
      "magaz": 3629,
      "cupcake": 3630,
      "complete": 3631,
      "owner": 3632,
      "separate": 3633,
      "spinach": 3634,
      "excited": 3635,
      "##coming": 3636,
      "thumbs": 3637,
      "organized": 3638,
      "flooded": 3639,
      "cobblestone": 3640,
      "industrial": 3641,
      "lounge": 3642,
      "scooters": 3643,
      "cans": 3644,
      "dusk": 3645,
      "eag": 3646,
      "fu": 3647,
      "lat": 3648,
      "lear": 3649,
      "pig": 3650,
      "rel": 3651,
      "rings": 3652,
      "rough": 3653,
      "trop": 3654,
      "vil": 3655,
      "##ai": 3656,
      "##ters": 3657,
      "##sely": 3658,
      "##ino": 3659,
      "ant": 3660,
      "##ops": 3661,
      "##alls": 3662,
      "##ider": 3663,
      "need": 3664,
      "shad": 3665,
      "bubble": 3666,
      "parrot": 3667,
      "carry": 3668,
      "ribb": 3669,
      "pian": 3670,
      "fluff": 3671,
      "really": 3672,
      "sideways": 3673,
      "##nished": 3674,
      "intently": 3675,
      "scrat": 3676,
      "watched": 3677,
      "aband": 3678,
      "headed": 3679,
      "headboard": 3680,
      "preten": 3681,
      "camp": 3682,
      "maroon": 3683,
      "saying": 3684,
      "crossed": 3685,
      "potter": 3686,
      "amuse": 3687,
      "polo": 3688,
      "railway": 3689,
      "shops": 3690,
      "photographed": 3691,
      "singer": 3692,
      "squir": 3693,
      "greyh": 3694,
      "counters": 3695,
      "countryside": 3696,
      "circus": 3697,
      "cruise": 3698,
      "stretching": 3699,
      "peeking": 3700,
      "condim": 3701,
      "kayak": 3702,
      "tossing": 3703,
      "crouching": 3704,
      "tuxed": 3705,
      "members": 3706,
      "meeting": 3707,
      "barbecue": 3708,
      "british": 3709,
      "obstacle": 3710,
      "japanese": 3711,
      "europe": 3712,
      "suburban": 3713,
      "tropical": 3714,
      "village": 3715,
      "fluffy": 3716,
      "amusement": 3717,
      "cush": 3718,
      "ela": 3719,
      "fry": 3720,
      "ges": 3721,
      "lower": 3722,
      "oly": 3723,
      "trough": 3724,
      "vac": 3725,
      "##ls": 3726,
      "##ca": 3727,
      "##ploy": 3728,
      "##ze": 3729,
      "##ater": 3730,
      "##ili": 3731,
      "##raying": 3732,
      "arena": 3733,
      "shut": 3734,
      "beam": 3735,
      "rose": 3736,
      "##unk": 3737,
      "##oney": 3738,
      "closely": 3739,
      "airbor": 3740,
      "come": 3741,
      "eleg": 3742,
      "alco": 3743,
      "heav": 3744,
      "level": 3745,
      "##rents": 3746,
      "guests": 3747,
      "stuck": 3748,
      "##lesc": 3749,
      "haw": 3750,
      "daytime": 3751,
      "stationary": 3752,
      "bagg": 3753,
      "employ": 3754,
      "barber": 3755,
      "barrier": 3756,
      "decoration": 3757,
      "polka": 3758,
      "parents": 3759,
      "artwork": 3760,
      "competit": 3761,
      "blocks": 3762,
      "quil": 3763,
      "ears": 3764,
      "interesting": 3765,
      "kneels": 3766,
      "napkin": 3767,
      "warning": 3768,
      "enjoys": 3769,
      "puppies": 3770,
      "silly": 3771,
      "##ific": 3772,
      "operating": 3773,
      "customers": 3774,
      "parachute": 3775,
      "human": 3776,
      "bookshelf": 3777,
      "crane": 3778,
      "adjusting": 3779,
      "terrain": 3780,
      "german": 3781,
      "strange": 3782,
      "peanut": 3783,
      "slightly": 3784,
      "abandoned": 3785,
      "elabor": 3786,
      "gesture": 3787,
      "olymp": 3788,
      "airborne": 3789,
      "alcohol": 3790,
      "heavily": 3791,
      "caut": 3792,
      "det": 3793,
      "dang": 3794,
      "hind": 3795,
      "jar": 3796,
      "link": 3797,
      "mer": 3798,
      "pump": 3799,
      "rom": 3800,
      "ris": 3801,
      "ti": 3802,
      "tug": 3803,
      "valley": 3804,
      "##ah": 3805,
      "##ailing": 3806,
      "##bat": 3807,
      "##bag": 3808,
      "##ok": 3809,
      "##fall": 3810,
      "##father": 3811,
      "##met": 3812,
      "##reme": 3813,
      "##atable": 3814,
      "##ened": 3815,
      "##cker": 3816,
      "##oph": 3817,
      "blu": 3818,
      "cargo": 3819,
      "##sses": 3820,
      "pige": 3821,
      "##stand": 3822,
      "grind": 3823,
      "reg": 3824,
      "skater": 3825,
      "##ption": 3826,
      "such": 3827,
      "swe": 3828,
      "sword": 3829,
      "grabb": 3830,
      "deser": 3831,
      "clust": 3832,
      "##ccup": 3833,
      "tex": 3834,
      "##ational": 3835,
      "socks": 3836,
      "social": 3837,
      "buns": 3838,
      "lighthouse": 3839,
      "babies": 3840,
      "besides": 3841,
      "emer": 3842,
      "racer": 3843,
      "meas": 3844,
      "##boats": 3845,
      "speakers": 3846,
      "jetliner": 3847,
      "note": 3848,
      "caught": 3849,
      "flatbed": 3850,
      "spoons": 3851,
      "particip": 3852,
      "foggy": 3853,
      "turkey": 3854,
      "tourist": 3855,
      "rusty": 3856,
      "tattoos": 3857,
      "comfort": 3858,
      "skinny": 3859,
      "parasailing": 3860,
      "sizes": 3861,
      "charact": 3862,
      "observing": 3863,
      "soldiers": 3864,
      "rubber": 3865,
      "begin": 3866,
      "begins": 3867,
      "grandfather": 3868,
      "silhouette": 3869,
      "dancers": 3870,
      "geese": 3871,
      "athletic": 3872,
      "unusual": 3873,
      "creek": 3874,
      "service": 3875,
      "utility": 3876,
      "connected": 3877,
      "escal": 3878,
      "inflatable": 3879,
      "toothpaste": 3880,
      "sneakers": 3881,
      "elegant": 3882,
      "olympic": 3883,
      "grabbing": 3884,
      ".\"": 3885,
      "av": 3886,
      "bor": 3887,
      "bay": 3888,
      "crying": 3889,
      "dy": 3890,
      "foli": 3891,
      "jam": 3892,
      "jeep": 3893,
      "karate": 3894,
      "mor": 3895,
      "mis": 3896,
      "nuts": 3897,
      "ru": 3898,
      "rout": 3899,
      "tro": 3900,
      "##lights": 3901,
      "##bing": 3902,
      "##can": 3903,
      "##cast": 3904,
      "##tru": 3905,
      "##nam": 3906,
      "##gn": 3907,
      "##ma": 3908,
      "##erries": 3909,
      "inst": 3910,
      "##ately": 3911,
      "strap": 3912,
      "mans": 3913,
      "##ouf": 3914,
      "##allic": 3915,
      "shri": 3916,
      "bean": 3917,
      "##ably": 3918,
      "buggy": 3919,
      "trav": 3920,
      "blood": 3921,
      "para": 3922,
      "upon": 3923,
      "rece": 3924,
      "played": 3925,
      "##eeled": 3926,
      "surfs": 3927,
      "poss": 3928,
      "sug": 3929,
      "##aki": 3930,
      "skyline": 3931,
      "cheer": 3932,
      "camouf": 3933,
      "vegetation": 3934,
      "metallic": 3935,
      "displays": 3936,
      "paints": 3937,
      "boxing": 3938,
      "grazes": 3939,
      "unique": 3940,
      "rocking": 3941,
      "sleep": 3942,
      "monument": 3943,
      "teamm": 3944,
      "flaming": 3945,
      "belong": 3946,
      "shapes": 3947,
      "trim": 3948,
      "candy": 3949,
      "crafts": 3950,
      "pedestal": 3951,
      "oppon": 3952,
      "harness": 3953,
      "approaches": 3954,
      "retri": 3955,
      "pours": 3956,
      "calc": 3957,
      "finish": 3958,
      "fingers": 3959,
      "owl": 3960,
      "awa": 3961,
      "strawberries": 3962,
      "muffins": 3963,
      "grinding": 3964,
      "redheaded": 3965,
      "movie": 3966,
      "squirrel": 3967,
      "condiments": 3968,
      "baggage": 3969,
      "foliage": 3970,
      "aqu": 3971,
      "bis": 3972,
      "done": 3973,
      "easter": 3974,
      "fight": 3975,
      "gour": 3976,
      "hooked": 3977,
      "keep": 3978,
      "love": 3979,
      "mi": 3980,
      "mes": 3981,
      "sle": 3982,
      "sells": 3983,
      "tiger": 3984,
      "were": 3985,
      "will": 3986,
      "##ift": 3987,
      "##eled": 3988,
      "##arel": 3989,
      "##book": 3990,
      "##off": 3991,
      "##pie": 3992,
      "##gy": 3993,
      "##ky": 3994,
      "##mat": 3995,
      "though": 3996,
      "##lete": 3997,
      "tort": 3998,
      "##opter": 3999,
      "##ided": 4000,
      "stance": 4001,
      "##icopter": 4002,
      "share": 4003,
      "chases": 4004,
      "somebo": 4005,
      "grouped": 4006,
      "larger": 4007,
      "##stri": 4008,
      "waterfall": 4009,
      "real": 4010,
      "##ctly": 4011,
      "live": 4012,
      "heard": 4013,
      "split": 4014,
      "text": 4015,
      "firetru": 4016,
      "lighted": 4017,
      "process": 4018,
      "savan": 4019,
      "catchers": 4020,
      "stepping": 4021,
      "attent": 4022,
      "helicopter": 4023,
      "resort": 4024,
      "piles": 4025,
      "meats": 4026,
      "cartoon": 4027,
      "screens": 4028,
      "tube": 4029,
      "pillar": 4030,
      "balance": 4031,
      "caps": 4032,
      "engaged": 4033,
      "climber": 4034,
      "commun": 4035,
      "microphones": 4036,
      "windowsill": 4037,
      "backpacks": 4038,
      "quick": 4039,
      "sails": 4040,
      "##life": 4041,
      "propped": 4042,
      "stretch": 4043,
      "portable": 4044,
      "express": 4045,
      "angle": 4046,
      "angry": 4047,
      "beverages": 4048,
      "labeled": 4049,
      "logo": 4050,
      "rolled": 4051,
      "delivery": 4052,
      "simple": 4053,
      "consisting": 4054,
      "splashes": 4055,
      "warehouse": 4056,
      "selection": 4057,
      "laundry": 4058,
      "learning": 4059,
      "ribbon": 4060,
      "piano": 4061,
      "pottery": 4062,
      "morning": 4063,
      "travelling": 4064,
      "retrie": 4065,
      "calcul": 4066,
      "somebody": 4067,
      "ax": 4068,
      "care": 4069,
      "dances": 4070,
      "fle": 4071,
      "ferry": 4072,
      "ill": 4073,
      "mel": 4074,
      "pow": 4075,
      "rot": 4076,
      "tiss": 4077,
      "vic": 4078,
      "wra": 4079,
      "wand": 4080,
      "yar": 4081,
      "##ively": 4082,
      "##band": 4083,
      "##cut": 4084,
      "##tim": 4085,
      "##oise": 4086,
      "##sa": 4087,
      "##pris": 4088,
      "necks": 4089,
      "shoo": 4090,
      "busses": 4091,
      "##acks": 4092,
      "carving": 4093,
      "herbs": 4094,
      "tending": 4095,
      "lie": 4096,
      "overalls": 4097,
      "##apple": 4098,
      "spac": 4099,
      "scra": 4100,
      "dest": 4101,
      "colum": 4102,
      "runners": 4103,
      "world": 4104,
      "dec": 4105,
      "teaching": 4106,
      "telesc": 4107,
      "biking": 4108,
      "##ggling": 4109,
      "stopping": 4110,
      "dip": 4111,
      "drivers": 4112,
      "drying": 4113,
      "flooring": 4114,
      "marking": 4115,
      "marath": 4116,
      "marina": 4117,
      "sauc": 4118,
      "##atory": 4119,
      "contest": 4120,
      "orch": 4121,
      "attem": 4122,
      "nighttime": 4123,
      "material": 4124,
      "guitars": 4125,
      "marketplace": 4126,
      "photographs": 4127,
      "pathway": 4128,
      "paintings": 4129,
      "typing": 4130,
      "english": 4131,
      "carrier": 4132,
      "wheelchair": 4133,
      "freight": 4134,
      "reflecting": 4135,
      "wildlife": 4136,
      "delta": 4137,
      "sailboat": 4138,
      "farmers": 4139,
      "##iously": 4140,
      "stalls": 4141,
      "letters": 4142,
      "figures": 4143,
      "burg": 4144,
      "burger": 4145,
      "portra": 4146,
      "celebration": 4147,
      "electrical": 4148,
      "condu": 4149,
      "goalie": 4150,
      "cooler": 4151,
      "athlete": 4152,
      "spinning": 4153,
      "repairing": 4154,
      "artistic": 4155,
      "moped": 4156,
      "adorable": 4157,
      "strawberry": 4158,
      "follows": 4159,
      "bricks": 4160,
      "maj": 4161,
      "hiker": 4162,
      "numerous": 4163,
      "fixtures": 4164,
      "uncooked": 4165,
      "brun": 4166,
      "dusty": 4167,
      "quilt": 4168,
      "caution": 4169,
      "sugar": 4170,
      "camouflage": 4171,
      "belongings": 4172,
      "savanna": 4173,
      "victor": 4174,
      "yarn": 4175,
      "telescope": 4176,
      "marathon": 4177,
      "ais": 4178,
      "cane": 4179,
      "frying": 4180,
      "filling": 4181,
      "gall": 4182,
      "nam": 4183,
      "native": 4184,
      "pand": 4185,
      "ren": 4186,
      "ropes": 4187,
      "south": 4188,
      "tim": 4189,
      "##right": 4190,
      "##af": 4191,
      "##aved": 4192,
      "##bby": 4193,
      "##ole": 4194,
      "##osing": 4195,
      "##noon": 4196,
      "##suit": 4197,
      "##pl": 4198,
      "##gate": 4199,
      "##inis": 4200,
      "any": 4201,
      "##enting": 4202,
      "##aling": 4203,
      "str": 4204,
      "##etra": 4205,
      "##oust": 4206,
      "wheeled": 4207,
      "shines": 4208,
      "buy": 4209,
      "chee": 4210,
      "chatting": 4211,
      "roaming": 4212,
      "fix": 4213,
      "tablet": 4214,
      "tablecl": 4215,
      "upright": 4216,
      "pies": 4217,
      "flips": 4218,
      "waterway": 4219,
      "seem": 4220,
      "sewing": 4221,
      "basin": 4222,
      "##ctors": 4223,
      "conso": 4224,
      "overcast": 4225,
      "legged": 4226,
      "raw": 4227,
      "def": 4228,
      "deer": 4229,
      "floats": 4230,
      "diam": 4231,
      "brand": 4232,
      "adm": 4233,
      "viewing": 4234,
      "fully": 4235,
      "much": 4236,
      "loom": 4237,
      "locked": 4238,
      "racetra": 4239,
      "serves": 4240,
      "donkey": 4241,
      "canal": 4242,
      "ovens": 4243,
      "unf": 4244,
      "##ashed": 4245,
      "newbor": 4246,
      "guitarist": 4247,
      "##izon": 4248,
      "pug": 4249,
      "afternoon": 4250,
      "layer": 4251,
      "bulld": 4252,
      "pushed": 4253,
      "drawing": 4254,
      "official": 4255,
      "racks": 4256,
      "clad": 4257,
      "accident": 4258,
      "accord": 4259,
      "##ucts": 4260,
      "opposing": 4261,
      "extended": 4262,
      "conversing": 4263,
      "stretches": 4264,
      "starting": 4265,
      "support": 4266,
      "##ibly": 4267,
      "angel": 4268,
      "##flower": 4269,
      "pattern": 4270,
      "autom": 4271,
      "embracing": 4272,
      "supermar": 4273,
      "discussion": 4274,
      "summer": 4275,
      "language": 4276,
      "shelving": 4277,
      "torch": 4278,
      "policemen": 4279,
      "somewhere": 4280,
      "necklace": 4281,
      "healthy": 4282,
      "european": 4283,
      "elaborate": 4284,
      "pumpkin": 4285,
      "blueb": 4286,
      "strapped": 4287,
      "shrimp": 4288,
      "possibly": 4289,
      "attempt": 4290,
      "panda": 4291,
      "tablecloth": 4292,
      "racetrack": 4293,
      "newborn": 4294,
      "supermarket": 4295,
      "20": 4296,
      "bad": 4297,
      "brow": 4298,
      "cit": 4299,
      "call": 4300,
      "give": 4301,
      "kicks": 4302,
      "lime": 4303,
      "mem": 4304,
      "rand": 4305,
      "try": 4306,
      "yog": 4307,
      "##dit": 4308,
      "##ula": 4309,
      "##ode": 4310,
      "##ney": 4311,
      "##wear": 4312,
      "##figh": 4313,
      "##erc": 4314,
      "thing": 4315,
      "inform": 4316,
      "##ret": 4317,
      "anch": 4318,
      "##ata": 4319,
      "##ros": 4320,
      "##omach": 4321,
      "stomach": 4322,
      "##ased": 4323,
      "##etti": 4324,
      "##ilies": 4325,
      "shed": 4326,
      "build": 4327,
      "chili": 4328,
      "##vering": 4329,
      "##ament": 4330,
      "bats": 4331,
      "surpris": 4332,
      "bedding": 4333,
      "conten": 4334,
      "bends": 4335,
      "spraying": 4336,
      "disk": 4337,
      "swung": 4338,
      "compact": 4339,
      "##aging": 4340,
      "cellular": 4341,
      "imp": 4342,
      "steering": 4343,
      "uniformed": 4344,
      "pitched": 4345,
      "homeless": 4346,
      "stripe": 4347,
      "stripes": 4348,
      "crew": 4349,
      "scenic": 4350,
      "##ddling": 4351,
      "knives": 4352,
      "pickle": 4353,
      "pickles": 4354,
      "notes": 4355,
      "trio": 4356,
      "feeds": 4357,
      "reflective": 4358,
      "drawers": 4359,
      "falls": 4360,
      "package": 4361,
      "studying": 4362,
      "##ctory": 4363,
      "happ": 4364,
      "touch": 4365,
      "furnished": 4366,
      "extreme": 4367,
      "storm": 4368,
      "rustic": 4369,
      "china": 4370,
      "college": 4371,
      "mixing": 4372,
      "freeway": 4373,
      "stock": 4374,
      "stools": 4375,
      "##pod": 4376,
      "member": 4377,
      "leafy": 4378,
      "archite": 4379,
      "indicating": 4380,
      "brief": 4381,
      "shrubs": 4382,
      "figurine": 4383,
      "windsurfing": 4384,
      "jewel": 4385,
      "ident": 4386,
      "invol": 4387,
      "robot": 4388,
      "taped": 4389,
      "magazine": 4390,
      "shades": 4391,
      "scratching": 4392,
      "character": 4393,
      "escalator": 4394,
      "border": 4395,
      "eastern": 4396,
      "gourmet": 4397,
      "tissue": 4398,
      "portrait": 4399,
      "conductor": 4400,
      "brunette": 4401,
      "diamond": 4402,
      "accordion": 4403,
      "eth": 4404,
      "fit": 4405,
      "mashed": 4406,
      "nights": 4407,
      "pal": 4408,
      "rab": 4409,
      "tick": 4410,
      "ul": 4411,
      "wond": 4412,
      "##ept": 4413,
      "##lines": 4414,
      "##dress": 4415,
      "##ually": 4416,
      "##tand": 4417,
      "##view": 4418,
      "##pass": 4419,
      "##gu": 4420,
      "##gen": 4421,
      "##gie": 4422,
      "##we": 4423,
      "##mers": 4424,
      "##jam": 4425,
      "##rent": 4426,
      "##ckers": 4427,
      "##onal": 4428,
      "##oose": 4429,
      "##ooks": 4430,
      "##illet": 4431,
      "when": 4432,
      "##rail": 4433,
      "needs": 4434,
      "shoot": 4435,
      "bead": 4436,
      "buying": 4437,
      "bust": 4438,
      "##urity": 4439,
      "skull": 4440,
      "chan": 4441,
      "cherry": 4442,
      "doz": 4443,
      "frozen": 4444,
      "##amb": 4445,
      "##andel": 4446,
      "parts": 4447,
      "walled": 4448,
      "histor": 4449,
      "upper": 4450,
      "could": 4451,
      "##uli": 4452,
      "##sticks": 4453,
      "rele": 4454,
      "rect": 4455,
      "sex": 4456,
      "seg": 4457,
      "signage": 4458,
      "force": 4459,
      "##ummy": 4460,
      "coast": 4461,
      "bedsp": 4462,
      "ottom": 4463,
      "comb": 4464,
      "horizon": 4465,
      "lifting": 4466,
      "##zzy": 4467,
      "conve": 4468,
      "motorized": 4469,
      "grab": 4470,
      "windsh": 4471,
      "dressing": 4472,
      "teal": 4473,
      "jumped": 4474,
      "trek": 4475,
      "treat": 4476,
      "opens": 4477,
      "pregn": 4478,
      "##quoise": 4479,
      "midst": 4480,
      "fencing": 4481,
      "dried": 4482,
      "bigger": 4483,
      "cheering": 4484,
      "camping": 4485,
      "viewed": 4486,
      "##angular": 4487,
      "refer": 4488,
      "##aco": 4489,
      "patron": 4490,
      "breast": 4491,
      "breaking": 4492,
      "performance": 4493,
      "curve": 4494,
      "hello": 4495,
      "storefront": 4496,
      "rescue": 4497,
      "linen": 4498,
      "unit": 4499,
      "unlo": 4500,
      "pajam": 4501,
      "hugs": 4502,
      "salon": 4503,
      "##rong": 4504,
      "creating": 4505,
      "sticker": 4506,
      "##dded": 4507,
      "commode": 4508,
      "directly": 4509,
      "pens": 4510,
      "styled": 4511,
      "butt": 4512,
      "winding": 4513,
      "ends": 4514,
      "dual": 4515,
      "jogging": 4516,
      "weaving": 4517,
      "interact": 4518,
      "letter": 4519,
      "gaming": 4520,
      "##wards": 4521,
      "turquoise": 4522,
      "overlooks": 4523,
      "trashcan": 4524,
      "posts": 4525,
      "storage": 4526,
      "medical": 4527,
      "medium": 4528,
      "buckets": 4529,
      "stretched": 4530,
      "draped": 4531,
      "products": 4532,
      "limb": 4533,
      "factory": 4534,
      "security": 4535,
      "pinata": 4536,
      "toasted": 4537,
      "snacks": 4538,
      "pineapple": 4539,
      "swimsuit": 4540,
      "dunkin": 4541,
      "markers": 4542,
      "protesters": 4543,
      "attend": 4544,
      "crates": 4545,
      "leaned": 4546,
      "sparse": 4547,
      "elevated": 4548,
      "protective": 4549,
      "bmw": 4550,
      "waffle": 4551,
      "rapids": 4552,
      "fuzzy": 4553,
      "tuxedo": 4554,
      "deserted": 4555,
      "cluster": 4556,
      "measuring": 4557,
      "flamingos": 4558,
      "illumin": 4559,
      "powder": 4560,
      "##timate": 4561,
      "aisle": 4562,
      "console": 4563,
      "memor": 4564,
      "happily": 4565,
      "identical": 4566,
      "ethnic": 4567,
      "rabb": 4568,
      "ultimate": 4569,
      "wonder": 4570,
      "bedspread": 4571,
      "ottoman": 4572,
      "windshield": 4573,
      "pregnant": 4574,
      "berries": 4575,
      "cyclists": 4576,
      "dash": 4577,
      "eas": 4578,
      "hal": 4579,
      "jars": 4580,
      "kept": 4581,
      "mc": 4582,
      "money": 4583,
      "now": 4584,
      "ox": 4585,
      "overs": 4586,
      "tired": 4587,
      "temp": 4588,
      "##ikes": 4589,
      "##du": 4590,
      "##aves": 4591,
      "##bee": 4592,
      "##uses": 4593,
      "##tie": 4594,
      "##vil": 4595,
      "##ination": 4596,
      "##ank": 4597,
      "inner": 4598,
      "##rew": 4599,
      "##aroni": 4600,
      "##ense": 4601,
      "##ompan": 4602,
      "today": 4603,
      "##etiz": 4604,
      "mantle": 4605,
      "##ister": 4606,
      "##oored": 4607,
      "##ilst": 4608,
      "whilst": 4609,
      "bucking": 4610,
      "##ounds": 4611,
      "ske": 4612,
      "skillet": 4613,
      "chro": 4614,
      "dozen": 4615,
      "plush": 4616,
      "outst": 4617,
      "carous": 4618,
      "snu": 4619,
      "snap": 4620,
      "##ains": 4621,
      "rim": 4622,
      "airlines": 4623,
      "cola": 4624,
      "skates": 4625,
      "horned": 4626,
      "licks": 4627,
      "altered": 4628,
      "alumin": 4629,
      "heels": 4630,
      "skii": 4631,
      "skiier": 4632,
      "spa": 4633,
      "spir": 4634,
      "sprou": 4635,
      "##ills": 4636,
      "handbag": 4637,
      "compan": 4638,
      "colla": 4639,
      "skysc": 4640,
      "crowds": 4641,
      "##ared": 4642,
      "muzz": 4643,
      "worked": 4644,
      "haircut": 4645,
      "prepar": 4646,
      "acoust": 4647,
      "##ipe": 4648,
      "clearing": 4649,
      "purch": 4650,
      "appetiz": 4651,
      "current": 4652,
      "shepher": 4653,
      "##ooth": 4654,
      "##used": 4655,
      "bikinis": 4656,
      "exerc": 4657,
      "##istic": 4658,
      "jean": 4659,
      "forested": 4660,
      "##arth": 4661,
      "##artment": 4662,
      "posters": 4663,
      "shoreline": 4664,
      "faced": 4665,
      "pads": 4666,
      "takeoff": 4667,
      "penc": 4668,
      "blocking": 4669,
      "bulls": 4670,
      "appliance": 4671,
      "clutter": 4672,
      "accompan": 4673,
      "americ": 4674,
      "fog": 4675,
      "visiting": 4676,
      "speeds": 4677,
      "digital": 4678,
      "gentlemen": 4679,
      "positioned": 4680,
      "depic": 4681,
      "called": 4682,
      "spots": 4683,
      "cooling": 4684,
      "warming": 4685,
      "cubs": 4686,
      "wrestling": 4687,
      "macaroni": 4688,
      "bookshelves": 4689,
      "hikers": 4690,
      "hipster": 4691,
      "amidst": 4692,
      "arrows": 4693,
      "eagle": 4694,
      "antel": 4695,
      "greyhound": 4696,
      "cushion": 4697,
      "hawai": 4698,
      "roman": 4699,
      "##ophone": 4700,
      "sweet": 4701,
      "##ccupied": 4702,
      "texting": 4703,
      "bisc": 4704,
      "attention": 4705,
      "quickly": 4706,
      "major": 4707,
      "blueberry": 4708,
      "random": 4709,
      "##fighter": 4710,
      "##retched": 4711,
      "contents": 4712,
      "jewelry": 4713,
      "nightstand": 4714,
      "outstretched": 4715,
      "aluminum": 4716,
      "skyscrap": 4717,
      "acoustic": 4718,
      "shepherd": 4719,
      "best": 4720,
      "cass": 4721,
      "dam": 4722,
      "gown": 4723,
      "grown": 4724,
      "gated": 4725,
      "ipod": 4726,
      "kh": 4727,
      "may": 4728,
      "mail": 4729,
      "pale": 4730,
      "pets": 4731,
      "tasting": 4732,
      "##rit": 4733,
      "##bla": 4734,
      "##tail": 4735,
      "##park": 4736,
      "##ms": 4737,
      "##inished": 4738,
      "##ities": 4739,
      "##res": 4740,
      "##omb": 4741,
      "stable": 4742,
      "state": 4743,
      "stones": 4744,
      "too": 4745,
      "##cket": 4746,
      "##ows": 4747,
      "##chan": 4748,
      "##otic": 4749,
      "##icap": 4750,
      "##ically": 4751,
      "##utes": 4752,
      "shre": 4753,
      "shag": 4754,
      "chandel": 4755,
      "blouse": 4756,
      "##ache": 4757,
      "##acher": 4758,
      "##achers": 4759,
      "battle": 4760,
      "pipes": 4761,
      "gran": 4762,
      "herding": 4763,
      "signals": 4764,
      "##nish": 4765,
      "spat": 4766,
      "sporting": 4767,
      "swans": 4768,
      "handstand": 4769,
      "handicap": 4770,
      "gradu": 4771,
      "towing": 4772,
      "collage": 4773,
      "soaring": 4774,
      "divid": 4775,
      "boogie": 4776,
      "mountainous": 4777,
      "brass": 4778,
      "##arent": 4779,
      "wicker": 4780,
      "marsh": 4781,
      "sax": 4782,
      "##arium": 4783,
      "##ipping": 4784,
      "races": 4785,
      "performers": 4786,
      "steer": 4787,
      "curved": 4788,
      "attract": 4789,
      "barbed": 4790,
      "stores": 4791,
      "paperwork": 4792,
      "setup": 4793,
      "lining": 4794,
      "##box": 4795,
      "blonde": 4796,
      "meals": 4797,
      "##ddled": 4798,
      "eyed": 4799,
      "cauli": 4800,
      "entree": 4801,
      "stylish": 4802,
      "machines": 4803,
      "washer": 4804,
      "weird": 4805,
      "interac": 4806,
      "sailor": 4807,
      "sailboats": 4808,
      "farmer": 4809,
      "foam": 4810,
      "grilling": 4811,
      "fisher": 4812,
      "expired": 4813,
      "folding": 4814,
      "spotted": 4815,
      "projector": 4816,
      "parasol": 4817,
      "gymnastic": 4818,
      "tags": 4819,
      "tagged": 4820,
      "activ": 4821,
      "denim": 4822,
      "blows": 4823,
      "mopeds": 4824,
      "rams": 4825,
      "moment": 4826,
      "thumb": 4827,
      "else": 4828,
      "leads": 4829,
      "slab": 4830,
      "silhouet": 4831,
      "attending": 4832,
      "muffin": 4833,
      "rollerbla": 4834,
      "plent": 4835,
      "crate": 4836,
      "croiss": 4837,
      "figurines": 4838,
      "demonstration": 4839,
      "cerem": 4840,
      "welding": 4841,
      "inspecting": 4842,
      "employees": 4843,
      "beanie": 4844,
      "teammate": 4845,
      "opponent": 4846,
      "mesh": 4847,
      "##piece": 4848,
      "firetruck": 4849,
      "calculator": 4850,
      "shooting": 4851,
      "spacious": 4852,
      "unfinished": 4853,
      "anchored": 4854,
      "convey": 4855,
      "referee": 4856,
      "patrons": 4857,
      "memorial": 4858,
      "halves": 4859,
      "carousel": 4860,
      "hawaiian": 4861,
      "khaki": 4862,
      "shaggy": 4863,
      "cauliflower": 4864,
      "bb": 4865,
      "bol": 4866,
      "bamb": 4867,
      "cable": 4868,
      "dad": 4869,
      "drop": 4870,
      "fer": 4871,
      "gig": 4872,
      "handing": 4873,
      "junk": 4874,
      "mm": 4875,
      "min": 4876,
      "pood": 4877,
      "pong": 4878,
      "pork": 4879,
      "rink": 4880,
      "rise": 4881,
      "san": 4882,
      "sat": 4883,
      "sear": 4884,
      "tusk": 4885,
      "vert": 4886,
      "vending": 4887,
      "west": 4888,
      "zomb": 4889,
      "##den": 4890,
      "##ders": 4891,
      "##donal": 4892,
      "##osed": 4893,
      "##obile": 4894,
      "##hop": 4895,
      "##hift": 4896,
      "##mes": 4897,
      "##mons": 4898,
      "##jection": 4899,
      "##inery": 4900,
      "##inger": 4901,
      "##lead": 4902,
      "incoming": 4903,
      "theater": 4904,
      "##athers": 4905,
      "##ester": 4906,
      "ton": 4907,
      "##iring": 4908,
      "##asian": 4909,
      "##orary": 4910,
      "##olog": 4911,
      "peeling": 4912,
      "atv": 4913,
      "shake": 4914,
      "ships": 4915,
      "shaved": 4916,
      "beat": 4917,
      "beak": 4918,
      "plains": 4919,
      "##xture": 4920,
      "paralle": 4921,
      "blazer": 4922,
      "thats": 4923,
      "launch": 4924,
      "##ional": 4925,
      "##rup": 4926,
      "cathed": 4927,
      "snowing": 4928,
      "snowsuit": 4929,
      "gras": 4930,
      "##elly": 4931,
      "nearly": 4932,
      "recl": 4933,
      "seating": 4934,
      "##inder": 4935,
      "##eech": 4936,
      "training": 4937,
      "greenery": 4938,
      "poor": 4939,
      "poking": 4940,
      "overt": 4941,
      "bend": 4942,
      "suite": 4943,
      "lemons": 4944,
      "speech": 4945,
      "grabs": 4946,
      "towers": 4947,
      "firefighter": 4948,
      "headsc": 4949,
      "bunny": 4950,
      "driven": 4951,
      "array": 4952,
      "brid": 4953,
      "##angle": 4954,
      "##acent": 4955,
      "colorfully": 4956,
      "##ipped": 4957,
      "bagel": 4958,
      "lobby": 4959,
      "pati": 4960,
      "mechan": 4961,
      "travelers": 4962,
      "keys": 4963,
      "hoop": 4964,
      "hug": 4965,
      "stickers": 4966,
      "scenery": 4967,
      "pillars": 4968,
      "flav": 4969,
      "engines": 4970,
      "garnish": 4971,
      "cookie": 4972,
      "bullet": 4973,
      "cauc": 4974,
      "equipped": 4975,
      "wedge": 4976,
      "breakd": 4977,
      "machinery": 4978,
      "pointed": 4979,
      "location": 4980,
      "early": 4981,
      "partly": 4982,
      "laughs": 4983,
      "disco": 4984,
      "##lift": 4985,
      "cowboys": 4986,
      "bleachers": 4987,
      "casual": 4988,
      "speeding": 4989,
      "eyeglasses": 4990,
      "ornam": 4991,
      "sprinkler": 4992,
      "paddles": 4993,
      "flipping": 4994,
      "stoop": 4995,
      "complet": 4996,
      "charging": 4997,
      "adjacent": 4998,
      "sausages": 4999,
      "##come": 5000,
      "consists": 5001,
      "swimsuits": 5002,
      "removing": 5003,
      "followed": 5004,
      "bites": 5005,
      "gazing": 5006,
      "priv": 5007,
      "elevator": 5008,
      "bmx": 5009,
      "belly": 5010,
      "waffles": 5011,
      "cheesy": 5012,
      "relaxes": 5013,
      "billboard": 5014,
      "kios": 5015,
      "tiered": 5016,
      "comfortably": 5017,
      "routine": 5018,
      "troph": 5019,
      "cheerlead": 5020,
      "aquarium": 5021,
      "mixture": 5022,
      "sleigh": 5023,
      "community": 5024,
      "wrapp": 5025,
      "saucer": 5026,
      "savannah": 5027,
      "automobile": 5028,
      "rectangular": 5029,
      "unloading": 5030,
      "illuminated": 5031,
      "mcdonal": 5032,
      "chrome": 5033,
      "preparation": 5034,
      "shredded": 5035,
      "spatula": 5036,
      "attractive": 5037,
      "gymnastics": 5038,
      "plenty": 5039,
      "ceremony": 5040,
      "bamboo": 5041,
      "parallel": 5042,
      "cathedral": 5043,
      "caucasian": 5044,
      "amb": 5045,
      "aven": 5046,
      "bid": 5047,
      "dro": 5048,
      "feath": 5049,
      "gathers": 5050,
      "kim": 5051,
      "lens": 5052,
      "my": 5053,
      "ol": 5054,
      "ping": 5055,
      "pil": 5056,
      "pac": 5057,
      "sen": 5058,
      "song": 5059,
      "sister": 5060,
      "tar": 5061,
      "tul": 5062,
      "tarp": 5063,
      "wrist": 5064,
      "zone": 5065,
      "##bage": 5066,
      "##bles": 5067,
      "##cake": 5068,
      "##cros": 5069,
      "##uting": 5070,
      "##tra": 5071,
      "##vi": 5072,
      "##vet": 5073,
      "##ov": 5074,
      "##pid": 5075,
      "##paper": 5076,
      "##zard": 5077,
      "##hat": 5078,
      "##hand": 5079,
      "##gir": 5080,
      "##wi": 5081,
      "##mel": 5082,
      "##inary": 5083,
      "##itting": 5084,
      "instruction": 5085,
      "##arves": 5086,
      "stun": 5087,
      "stating": 5088,
      "tourn": 5089,
      "##asium": 5090,
      "##orium": 5091,
      "##ether": 5092,
      "##ishing": 5093,
      "##ilar": 5094,
      "wheat": 5095,
      "peer": 5096,
      "peas": 5097,
      "peering": 5098,
      "##ico": 5099,
      "shr": 5100,
      "bump": 5101,
      "##urning": 5102,
      "places": 5103,
      "plaque": 5104,
      "cho": 5105,
      "chis": 5106,
      "rod": 5107,
      "roast": 5108,
      "holid": 5109,
      "plu": 5110,
      "plow": 5111,
      "smooth": 5112,
      "##semb": 5113,
      "##rib": 5114,
      "wallet": 5115,
      "lacros": 5116,
      "carved": 5117,
      "loose": 5118,
      "waterfront": 5119,
      "##eeping": 5120,
      "##phic": 5121,
      "cock": 5122,
      "motoc": 5123,
      "lifts": 5124,
      "congre": 5125,
      "##ieval": 5126,
      "couples": 5127,
      "sund": 5128,
      "##mbol": 5129,
      "lecture": 5130,
      "spices": 5131,
      "roads": 5132,
      "grape": 5133,
      "gravy": 5134,
      "score": 5135,
      "rafting": 5136,
      "wallpaper": 5137,
      "boarders": 5138,
      "##estra": 5139,
      "tech": 5140,
      "teacher": 5141,
      "guide": 5142,
      "fireman": 5143,
      "camel": 5144,
      "haul": 5145,
      "metrop": 5146,
      "prom": 5147,
      "projection": 5148,
      "cameras": 5149,
      "safe": 5150,
      "cleans": 5151,
      "mex": 5152,
      "bricked": 5153,
      "skatepark": 5154,
      "barric": 5155,
      "canoes": 5156,
      "homes": 5157,
      "caboose": 5158,
      "cabbage": 5159,
      "mouths": 5160,
      "looked": 5161,
      "bookcase": 5162,
      "cheesecake": 5163,
      "monk": 5164,
      "spec": 5165,
      "speak": 5166,
      "speaker": 5167,
      "salt": 5168,
      "cloud": 5169,
      "crest": 5170,
      "puck": 5171,
      "jumpsuit": 5172,
      "submer": 5173,
      "kno": 5174,
      "squat": 5175,
      "engage": 5176,
      "cleaned": 5177,
      "enth": 5178,
      "wheeler": 5179,
      "vanilla": 5180,
      "##deled": 5181,
      "quite": 5182,
      "readies": 5183,
      "teens": 5184,
      "claus": 5185,
      "function": 5186,
      "##liding": 5187,
      "makeshift": 5188,
      "strollers": 5189,
      "leashes": 5190,
      "extra": 5191,
      "sold": 5192,
      "medieval": 5193,
      "returning": 5194,
      "chains": 5195,
      "audit": 5196,
      "presenting": 5197,
      "digs": 5198,
      "syrup": 5199,
      "symbol": 5200,
      "tattooed": 5201,
      "boulder": 5202,
      "motorbikes": 5203,
      "smartphone": 5204,
      "booths": 5205,
      "kayaking": 5206,
      "finished": 5207,
      "mustache": 5208,
      "gymnasium": 5209,
      "##undy": 5210,
      "##point": 5211,
      "observes": 5212,
      "sepia": 5213,
      "awning": 5214,
      "rubbing": 5215,
      "similar": 5216,
      "filthy": 5217,
      "adorned": 5218,
      "examines": 5219,
      "marked": 5220,
      "adjusts": 5221,
      "dancer": 5222,
      "athletes": 5223,
      "countertops": 5224,
      "fixture": 5225,
      "slowly": 5226,
      "languages": 5227,
      "nurses": 5228,
      "tackle": 5229,
      "printed": 5230,
      "season": 5231,
      "arriving": 5232,
      "shuttle": 5233,
      "gestures": 5234,
      "pigeon": 5235,
      "emergen": 5236,
      "participating": 5237,
      "axe": 5238,
      "orchestra": 5239,
      "burgundy": 5240,
      "names": 5241,
      "times": 5242,
      "admiring": 5243,
      "surprised": 5244,
      "stockings": 5245,
      "architecture": 5246,
      "dozens": 5247,
      "pajamas": 5248,
      "interactive": 5249,
      "collared": 5250,
      "accompanied": 5251,
      "antelope": 5252,
      "chandelier": 5253,
      "graduation": 5254,
      "saxophone": 5255,
      "interacting": 5256,
      "silhouetted": 5257,
      "bbq": 5258,
      "trophy": 5259,
      "mcdonald": 5260,
      "feathers": 5261,
      "tournament": 5262,
      "lacrosse": 5263,
      "auditorium": 5264,
      "emergency": 5265,
      "10": 5266,
      "aff": 5267,
      "berry": 5268,
      "came": 5269,
      "cem": 5270,
      "cras": 5271,
      "dj": 5272,
      "dum": 5273,
      "fut": 5274,
      "file": 5275,
      "fill": 5276,
      "got": 5277,
      "hallow": 5278,
      "letting": 5279,
      "mill": 5280,
      "mist": 5281,
      "maker": 5282,
      "nav": 5283,
      "oct": 5284,
      "ostri": 5285,
      "pane": 5286,
      "que": 5287,
      "rush": 5288,
      "say": 5289,
      "sight": 5290,
      "sound": 5291,
      "tas": 5292,
      "til": 5293,
      "telling": 5294,
      "trot": 5295,
      "tether": 5296,
      "ven": 5297,
      "vine": 5298,
      "vess": 5299,
      "##ex": 5300,
      "##back": 5301,
      "##ude": 5302,
      "##tage": 5303,
      "##occupied": 5304,
      "##pad": 5305,
      "##zing": 5306,
      "##hap": 5307,
      "##hich": 5308,
      "##haw": 5309,
      "##fo": 5310,
      "##fted": 5311,
      "##fruit": 5312,
      "##ana": 5313,
      "##erole": 5314,
      "ther": 5315,
      "thru": 5316,
      "threw": 5317,
      "ones": 5318,
      "ann": 5319,
      "##ener": 5320,
      "##alled": 5321,
      "##oming": 5322,
      "strong": 5323,
      "##onies": 5324,
      "##orn": 5325,
      "##eting": 5326,
      "##etery": 5327,
      "##ised": 5328,
      "##law": 5329,
      "##lapid": 5330,
      "##idy": 5331,
      "##roud": 5332,
      "##ersk": 5333,
      "peaches": 5334,
      "peaco": 5335,
      "shady": 5336,
      "shakes": 5337,
      "shaving": 5338,
      "##igious": 5339,
      "skirts": 5340,
      "chi": 5341,
      "doctor": 5342,
      "doctors": 5343,
      "tram": 5344,
      "streetlight": 5345,
      "##ams": 5346,
      "topless": 5347,
      "##ssy": 5348,
      "##sters": 5349,
      "##station": 5350,
      "watermel": 5351,
      "seal": 5352,
      "seed": 5353,
      "##unching": 5354,
      "##anted": 5355,
      "grassland": 5356,
      "surg": 5357,
      "menu": 5358,
      "forks": 5359,
      "backwards": 5360,
      "kittens": 5361,
      "cob": 5362,
      "coal": 5363,
      "coke": 5364,
      "coles": 5365,
      "coca": 5366,
      "pocket": 5367,
      "poised": 5368,
      "asc": 5369,
      "lip": 5370,
      "cong": 5371,
      "convent": 5372,
      "wake": 5373,
      "roadside": 5374,
      "handrail": 5375,
      "throughout": 5376,
      "grave": 5377,
      "graphic": 5378,
      "towed": 5379,
      "desks": 5380,
      "toilette": 5381,
      "deal": 5382,
      "soaked": 5383,
      "frisbe": 5384,
      "diag": 5385,
      "flowing": 5386,
      "sunbat": 5387,
      "sandwhich": 5388,
      "checks": 5389,
      "chews": 5390,
      "bring": 5391,
      "perches": 5392,
      "##anging": 5393,
      "prov": 5394,
      "platters": 5395,
      "hitter": 5396,
      "saw": 5397,
      "acro": 5398,
      "hangar": 5399,
      "ages": 5400,
      "broc": 5401,
      "logs": 5402,
      "patri": 5403,
      "racers": 5404,
      "contemp": 5405,
      "sleeved": 5406,
      "sleepy": 5407,
      "amaz": 5408,
      "amtra": 5409,
      "canad": 5410,
      "##usi": 5411,
      "##olli": 5412,
      "unable": 5413,
      "union": 5414,
      "huddled": 5415,
      "salmon": 5416,
      "##izing": 5417,
      "panel": 5418,
      "squash": 5419,
      "garlic": 5420,
      "trip": 5421,
      "outfield": 5422,
      "distant": 5423,
      "friz": 5424,
      "planted": 5425,
      "facility": 5426,
      "rollersk": 5427,
      "compete": 5428,
      "smokes": 5429,
      "claim": 5430,
      "hamster": 5431,
      "cram": 5432,
      "crackers": 5433,
      "formally": 5434,
      "accents": 5435,
      "raises": 5436,
      "message": 5437,
      "drummer": 5438,
      "stroll": 5439,
      "touches": 5440,
      "checked": 5441,
      "newspapers": 5442,
      "spring": 5443,
      "chopping": 5444,
      "napping": 5445,
      "courts": 5446,
      "dragon": 5447,
      "sculptures": 5448,
      "jerseys": 5449,
      "mixer": 5450,
      "price": 5451,
      "peeks": 5452,
      "writes": 5453,
      "sprinkled": 5454,
      "carpeted": 5455,
      "calico": 5456,
      "shadows": 5457,
      "kayaks": 5458,
      "protesting": 5459,
      "parasail": 5460,
      "warmly": 5461,
      "tossed": 5462,
      "separ": 5463,
      "repairs": 5464,
      "customer": 5465,
      "oddly": 5466,
      "ramps": 5467,
      "removed": 5468,
      "wrestler": 5469,
      "cycles": 5470,
      "macbook": 5471,
      "tires": 5472,
      "auto": 5473,
      "archway": 5474,
      "examining": 5475,
      "cops": 5476,
      "descri": 5477,
      "embrace": 5478,
      "goof": 5479,
      "shelter": 5480,
      "record": 5481,
      "policeman": 5482,
      "knitting": 5483,
      "cello": 5484,
      "welcome": 5485,
      "religious": 5486,
      "pretending": 5487,
      "vacant": 5488,
      "dangling": 5489,
      "merch": 5490,
      "rising": 5491,
      "pigeons": 5492,
      "grinds": 5493,
      "beginning": 5494,
      "olympics": 5495,
      "awaiting": 5496,
      "retriever": 5497,
      "fleet": 5498,
      "rotten": 5499,
      "markings": 5500,
      "cheek": 5501,
      "##guard": 5502,
      "horizont": 5503,
      "temporary": 5504,
      "spiral": 5505,
      "sprouts": 5506,
      "casserole": 5507,
      "damaged": 5508,
      "granite": 5509,
      "poodle": 5510,
      "##estern": 5511,
      "kiosk": 5512,
      "avenue": 5513,
      "bidet": 5514,
      "olive": 5515,
      "pilot": 5516,
      "tulips": 5517,
      "stunts": 5518,
      "grapefruit": 5519,
      "metropol": 5520,
      "mexican": 5521,
      "submerged": 5522,
      "enthusi": 5523,
      "cemetery": 5524,
      "crashing": 5525,
      "halloween": 5526,
      "##lapidated": 5527,
      "coleslaw": 5528,
      "amtrak": 5529,
      "bale": 5530,
      "bark": 5531,
      "cd": 5532,
      "crash": 5533,
      "dv": 5534,
      "der": 5535,
      "deb": 5536,
      "foo": 5537,
      "filed": 5538,
      "gad": 5539,
      "gest": 5540,
      "jelly": 5541,
      "king": 5542,
      "ken": 5543,
      "leng": 5544,
      "mur": 5545,
      "mick": 5546,
      "milling": 5547,
      "non": 5548,
      "nut": 5549,
      "nature": 5550,
      "oil": 5551,
      "ome": 5552,
      "pou": 5553,
      "page": 5554,
      "proud": 5555,
      "si": 5556,
      "sid": 5557,
      "sure": 5558,
      "sip": 5559,
      "sanding": 5560,
      "sacks": 5561,
      "tide": 5562,
      "tidy": 5563,
      "ver": 5564,
      "wig": 5565,
      "yan": 5566,
      "year": 5567,
      "your": 5568,
      "##bling": 5569,
      "##car": 5570,
      "##cade": 5571,
      "##using": 5572,
      "##uated": 5573,
      "##thing": 5574,
      "##pers": 5575,
      "##ho": 5576,
      "##ham": 5577,
      "##writ": 5578,
      "##food": 5579,
      "##field": 5580,
      "##feter": 5581,
      "##kins": 5582,
      "##jured": 5583,
      "##itan": 5584,
      "##erence": 5585,
      "tho": 5586,
      "thread": 5587,
      "injured": 5588,
      "then": 5589,
      "ank": 5590,
      "##ati": 5591,
      "ofa": 5592,
      "##alt": 5593,
      "##alks": 5594,
      "##oring": 5595,
      "##owers": 5596,
      "mane": 5597,
      "##ising": 5598,
      "##ises": 5599,
      "whit": 5600,
      "##idger": 5601,
      "peel": 5602,
      "peak": 5603,
      "atl": 5604,
      "shaw": 5605,
      "##itement": 5606,
      "beers": 5607,
      "beca": 5608,
      "budd": 5609,
      "buried": 5610,
      "chase": 5611,
      "doc": 5612,
      "docks": 5613,
      "tramp": 5614,
      "frolic": 5615,
      "ital": 5616,
      "hispan": 5617,
      "lav": 5618,
      "##ulance": 5619,
      "flour": 5620,
      "##stance": 5621,
      "##storm": 5622,
      "snowstorm": 5623,
      "fields": 5624,
      "basement": 5625,
      "##antic": 5626,
      "##phalt": 5627,
      "coin": 5628,
      "cole": 5629,
      "cozy": 5630,
      "##tled": 5631,
      "horn": 5632,
      "assemb": 5633,
      "asphalt": 5634,
      "conver": 5635,
      "##aping": 5636,
      "succ": 5637,
      "spark": 5638,
      "spraw": 5639,
      "disp": 5640,
      "sweep": 5641,
      "swiss": 5642,
      "##illy": 5643,
      "cityscape": 5644,
      "handed": 5645,
      "grapes": 5646,
      "slop": 5647,
      "slanted": 5648,
      "scient": 5649,
      "worn": 5650,
      "underwear": 5651,
      "bipl": 5652,
      "guiding": 5653,
      "sock": 5654,
      "treats": 5655,
      "dipping": 5656,
      "dilapidated": 5657,
      "##orted": 5658,
      "headdress": 5659,
      "cutter": 5660,
      "preser": 5661,
      "goers": 5662,
      "sunlit": 5663,
      "fours": 5664,
      "metro": 5665,
      "passed": 5666,
      "theme": 5667,
      "bicyclists": 5668,
      "workstation": 5669,
      "ridding": 5670,
      "cords": 5671,
      "brot": 5672,
      "patient": 5673,
      "##urned": 5674,
      "remains": 5675,
      "barren": 5676,
      "barten": 5677,
      "darkened": 5678,
      "refrigerators": 5679,
      "liner": 5680,
      "diner": 5681,
      "special": 5682,
      "swimmer": 5683,
      "swimmers": 5684,
      "unoccupied": 5685,
      "pauses": 5686,
      "##rict": 5687,
      "huddle": 5688,
      "salsa": 5689,
      "news": 5690,
      "leave": 5691,
      "brushed": 5692,
      "jumpsuits": 5693,
      "substance": 5694,
      "knot": 5695,
      "famous": 5696,
      "beautifully": 5697,
      "cape": 5698,
      "capped": 5699,
      "garment": 5700,
      "include": 5701,
      "stairway": 5702,
      "district": 5703,
      "carried": 5704,
      "cact": 5705,
      "cafeter": 5706,
      "entering": 5707,
      "artific": 5708,
      "necktie": 5709,
      "landed": 5710,
      "shots": 5711,
      "appearing": 5712,
      "rooft": 5713,
      "hike": 5714,
      "instructor": 5715,
      "clapping": 5716,
      "toddlers": 5717,
      "joy": 5718,
      "weeds": 5719,
      "wrapping": 5720,
      "feather": 5721,
      "foal": 5722,
      "turtle": 5723,
      "seafood": 5724,
      "india": 5725,
      "practices": 5726,
      "chopsticks": 5727,
      "extending": 5728,
      "stained": 5729,
      "medal": 5730,
      "juggling": 5731,
      "golfer": 5732,
      "visit": 5733,
      "puppet": 5734,
      "dragging": 5735,
      "vendors": 5736,
      "exposed": 5737,
      "lifeguard": 5738,
      "celebrate": 5739,
      "streamers": 5740,
      "workshop": 5741,
      "veggie": 5742,
      "##coat": 5743,
      "shovels": 5744,
      "##ensive": 5745,
      "stocking": 5746,
      "limit": 5747,
      "viet": 5748,
      "deliver": 5749,
      "excitement": 5750,
      "glowing": 5751,
      "sectional": 5752,
      "consum": 5753,
      "remodeled": 5754,
      "plank": 5755,
      "wrestle": 5756,
      "leafless": 5757,
      "elmo": 5758,
      "weathered": 5759,
      "dumpster": 5760,
      "barbeque": 5761,
      "slaw": 5762,
      "##ratul": 5763,
      "floaties": 5764,
      "descent": 5765,
      "discussing": 5766,
      "sumo": 5767,
      "cuddling": 5768,
      "recording": 5769,
      "cotton": 5770,
      "cottage": 5771,
      "recipe": 5772,
      "confetti": 5773,
      "conference": 5774,
      "cereal": 5775,
      "everyone": 5776,
      "scrub": 5777,
      "greyhounds": 5778,
      "installed": 5779,
      "reception": 5780,
      "tortilla": 5781,
      "expression": 5782,
      "carefully": 5783,
      "columns": 5784,
      "bulldog": 5785,
      "yoga": 5786,
      "briefcase": 5787,
      "involved": 5788,
      "##weight": 5789,
      "skiiers": 5790,
      "exercise": 5791,
      "pencils": 5792,
      "skyscraper": 5793,
      "fisherman": 5794,
      "conveyor": 5795,
      "##ology": 5796,
      "patiently": 5797,
      "completely": 5798,
      "private": 5799,
      "wrapper": 5800,
      "ambulance": 5801,
      "kimon": 5802,
      "shrine": 5803,
      "plugged": 5804,
      "congregate": 5805,
      "venue": 5806,
      "congratul": 5807,
      "acrobat": 5808,
      "brocolli": 5809,
      "frizbee": 5810,
      "horizontal": 5811,
      "gadget": 5812,
      "length": 5813,
      "omelet": 5814,
      "sidel": 5815,
      "yanke": 5816,
      "because": 5817,
      "hispanic": 5818,
      "cafeteria": 5819,
      "artificial": 5820,
      "30": 5821,
      "50": 5822,
      "ave": 5823,
      "ado": 5824,
      "bass": 5825,
      "cris": 5826,
      "craw": 5827,
      "caged": 5828,
      "eff": 5829,
      "est": 5830,
      "east": 5831,
      "fou": 5832,
      "found": 5833,
      "gull": 5834,
      "gates": 5835,
      "hun": 5836,
      "hedge": 5837,
      "honey": 5838,
      "iphone": 5839,
      "lon": 5840,
      "lass": 5841,
      "lion": 5842,
      "lant": 5843,
      "last": 5844,
      "lilies": 5845,
      "miss": 5846,
      "moored": 5847,
      "ny": 5848,
      "ner": 5849,
      "nine": 5850,
      "nets": 5851,
      "occ": 5852,
      "poo": 5853,
      "pap": 5854,
      "rv": 5855,
      "rally": 5856,
      "tink": 5857,
      "tale": 5858,
      "tric": 5859,
      "var": 5860,
      "vent": 5861,
      "vast": 5862,
      "vans": 5863,
      "woo": 5864,
      "web": 5865,
      "wool": 5866,
      "wok": 5867,
      "##ila": 5868,
      "##ifor": 5869,
      "##ience": 5870,
      "##del": 5871,
      "##bu": 5872,
      "##bread": 5873,
      "##ule": 5874,
      "##uct": 5875,
      "##oid": 5876,
      "##ozer": 5877,
      "##net": 5878,
      "##yon": 5879,
      "##yond": 5880,
      "##pting": 5881,
      "##gin": 5882,
      "##gers": 5883,
      "##well": 5884,
      "##wise": 5885,
      "##fol": 5886,
      "##fly": 5887,
      "##ki": 5888,
      "##ker": 5889,
      "##inar": 5890,
      "##inations": 5891,
      "##ingly": 5892,
      "##itch": 5893,
      "##itude": 5894,
      "##anse": 5895,
      "##eries": 5896,
      "thom": 5897,
      "##lets": 5898,
      "anal": 5899,
      "##ening": 5900,
      "##ome": 5901,
      "stump": 5902,
      "##eding": 5903,
      "tone": 5904,
      "took": 5905,
      "##ora": 5906,
      "##ords": 5907,
      "##outs": 5908,
      "##cher": 5909,
      "##lain": 5910,
      "situated": 5911,
      "##ote": 5912,
      "##oline": 5913,
      "##ersby": 5914,
      "pear": 5915,
      "pears": 5916,
      "##ics": 5917,
      "##icle": 5918,
      "shine": 5919,
      "##igan": 5920,
      "beyond": 5921,
      "##ards": 5922,
      "##ablish": 5923,
      "bum": 5924,
      "bored": 5925,
      "##aded": 5926,
      "##ury": 5927,
      "skim": 5928,
      "skills": 5929,
      "fron": 5930,
      "frog": 5931,
      "##cept": 5932,
      "##celain": 5933,
      "plum": 5934,
      "blade": 5935,
      "blades": 5936,
      "##rian": 5937,
      "personnel": 5938,
      "laven": 5939,
      "##ulated": 5940,
      "##aint": 5941,
      "reve": 5942,
      "sees": 5943,
      "sequ": 5944,
      "##pled": 5945,
      "playfully": 5946,
      "grasses": 5947,
      "##entr": 5948,
      "airline": 5949,
      "hash": 5950,
      "asia": 5951,
      "lips": 5952,
      "lifted": 5953,
      "##lders": 5954,
      "##ptions": 5955,
      "overpass": 5956,
      "overweight": 5957,
      "##rants": 5958,
      "waist": 5959,
      "browns": 5960,
      "litter": 5961,
      "intric": 5962,
      "span": 5963,
      "spell": 5964,
      "spire": 5965,
      "spins": 5966,
      "sweeping": 5967,
      "handles": 5968,
      "slat": 5969,
      "sco": 5970,
      "scub": 5971,
      "windy": 5972,
      "##shi": 5973,
      "bib": 5974,
      "stoplights": 5975,
      "diaper": 5976,
      "headset": 5977,
      "headband": 5978,
      "envi": 5979,
      "##nia": 5980,
      "sheeps": 5981,
      "arid": 5982,
      "added": 5983,
      "viewer": 5984,
      "perch": 5985,
      "##anger": 5986,
      "passersby": 5987,
      "wiping": 5988,
      "proc": 5989,
      "march": 5990,
      "mosa": 5991,
      "mohaw": 5992,
      "mugs": 5993,
      "##icking": 5994,
      "##mentary": 5995,
      "ridge": 5996,
      "corral": 5997,
      "hanger": 5998,
      "loaf": 5999,
      "serious": 6000,
      "curvy": 6001,
      "sleek": 6002,
      "highchair": 6003,
      "pita": 6004,
      "pitchers": 6005,
      "bottled": 6006,
      "decked": 6007,
      "##ishes": 6008,
      "holes": 6009,
      "dinos": 6010,
      "##gram": 6011,
      "##anced": 6012,
      "expla": 6013,
      "unic": 6014,
      "noses": 6015,
      "greeting": 6016,
      "##ronment": 6017,
      "tuba": 6018,
      "obsc": 6019,
      "smiley": 6020,
      "ballet": 6021,
      "families": 6022,
      "breads": 6023,
      "squats": 6024,
      "##enders": 6025,
      "concentr": 6026,
      "picked": 6027,
      "nothing": 6028,
      "triple": 6029,
      "triangle": 6030,
      "layered": 6031,
      "stairwell": 6032,
      "carriages": 6033,
      "entry": 6034,
      "freely": 6035,
      "artists": 6036,
      "equest": 6037,
      "lands": 6038,
      "landsc": 6039,
      "lefto": 6040,
      "central": 6041,
      "bloss": 6042,
      "quest": 6043,
      "earphones": 6044,
      "claw": 6045,
      "clause": 6046,
      "crab": 6047,
      "cracked": 6048,
      "clutching": 6049,
      "jogs": 6050,
      "interest": 6051,
      "arranging": 6052,
      "##bbled": 6053,
      "featured": 6054,
      "terrier": 6055,
      "cabinetry": 6056,
      "models": 6057,
      "checkout": 6058,
      "exter": 6059,
      "extends": 6060,
      "burning": 6061,
      "portion": 6062,
      "expanse": 6063,
      "##flowers": 6064,
      "utensil": 6065,
      "label": 6066,
      "sprayed": 6067,
      "condition": 6068,
      "califor": 6069,
      "stocked": 6070,
      "porcelain": 6071,
      "spotlight": 6072,
      "tails": 6073,
      "lego": 6074,
      "listens": 6075,
      "blurred": 6076,
      "ranch": 6077,
      "observe": 6078,
      "operates": 6079,
      "dune": 6080,
      "dunking": 6081,
      "tightly": 6082,
      "planting": 6083,
      "butterfly": 6084,
      "calmly": 6085,
      "groceries": 6086,
      "owners": 6087,
      "indicates": 6088,
      "notebooks": 6089,
      "ponytail": 6090,
      "clowns": 6091,
      "dotted": 6092,
      "pleas": 6093,
      "bouncing": 6094,
      "jockeys": 6095,
      "goose": 6096,
      "nurse": 6097,
      "grizz": 6098,
      "recre": 6099,
      "knitted": 6100,
      "hurdles": 6101,
      "demonstrating": 6102,
      "celery": 6103,
      "##ivity": 6104,
      "robes": 6105,
      "seasoned": 6106,
      "radi": 6107,
      "radio": 6108,
      "somewhat": 6109,
      "stripped": 6110,
      "necklaces": 6111,
      "dome": 6112,
      "domin": 6113,
      "blindfol": 6114,
      "magazines": 6115,
      "tuxedos": 6116,
      "cushions": 6117,
      "employee": 6118,
      "competitors": 6119,
      "danger": 6120,
      "rises": 6121,
      "misty": 6122,
      "recei": 6123,
      "scramb": 6124,
      "victorian": 6125,
      "gallery": 6126,
      "renov": 6127,
      "bulldozer": 6128,
      "information": 6129,
      "change": 6130,
      "historic": 6131,
      "sexy": 6132,
      "trekking": 6133,
      "buttons": 6134,
      "powdered": 6135,
      "rabbit": 6136,
      "dashboard": 6137,
      "oversized": 6138,
      "skew": 6139,
      "company": 6140,
      "muzzled": 6141,
      "america": 6142,
      "biscuits": 6143,
      "handicapped": 6144,
      "activities": 6145,
      "vertical": 6146,
      "zombie": 6147,
      "overturned": 6148,
      "headscarf": 6149,
      "mechanical": 6150,
      "breakdancing": 6151,
      "##girl": 6152,
      "motocross": 6153,
      "barricade": 6154,
      "affix": 6155,
      "octop": 6156,
      "ostrich": 6157,
      "queen": 6158,
      "vessel": 6159,
      "watermelon": 6160,
      "convention": 6161,
      "patriotic": 6162,
      "goofy": 6163,
      "metropolitan": 6164,
      "derby": 6165,
      "debris": 6166,
      "gesturing": 6167,
      "mickey": 6168,
      "##idgerator": 6169,
      "trampoline": 6170,
      "sprawled": 6171,
      "bartender": 6172,
      "cactus": 6173,
      "rooftop": 6174,
      "vietnam": 6175,
      "kimono": 6176,
      "crawling": 6177,
      "establish": 6178,
      "lanter": 6179,
      "thomas": 6180,
      "lavender": 6181,
      "scuba": 6182,
      "environment": 6183,
      "mosaic": 6184,
      "mohawk": 6185,
      "dinosaur": 6186,
      "california": 6187,
      "ast": 6188,
      "bone": 6189,
      "barel": 6190,
      "cin": 6191,
      "cds": 6192,
      "crown": 6193,
      "cyl": 6194,
      "cider": 6195,
      "crib": 6196,
      "dut": 6197,
      "dental": 6198,
      "deter": 6199,
      "darth": 6200,
      "earth": 6201,
      "fellow": 6202,
      "fine": 6203,
      "ga": 6204,
      "gummy": 6205,
      "gliding": 6206,
      "hour": 6207,
      "hook": 6208,
      "hides": 6209,
      "iris": 6210,
      "iced": 6211,
      "ja": 6212,
      "jes": 6213,
      "jug": 6214,
      "kab": 6215,
      "kaw": 6216,
      "led": 6217,
      "ming": 6218,
      "mal": 6219,
      "mol": 6220,
      "nes": 6221,
      "oak": 6222,
      "oval": 6223,
      "occup": 6224,
      "pra": 6225,
      "pant": 6226,
      "parent": 6227,
      "rh": 6228,
      "rul": 6229,
      "rese": 6230,
      "sack": 6231,
      "sell": 6232,
      "sour": 6233,
      "sorting": 6234,
      "tying": 6235,
      "tum": 6236,
      "tip": 6237,
      "und": 6238,
      "vir": 6239,
      "vel": 6240,
      "vad": 6241,
      "vand": 6242,
      "vul": 6243,
      "vane": 6244,
      "vib": 6245,
      "wad": 6246,
      "waste": 6247,
      "##ien": 6248,
      "##iel": 6249,
      "##eer": 6250,
      "##dge": 6251,
      "##bell": 6252,
      "##cot": 6253,
      "##cases": 6254,
      "##clos": 6255,
      "##cient": 6256,
      "##uzz": 6257,
      "##tails": 6258,
      "##oy": 6259,
      "##yed": 6260,
      "##pped": 6261,
      "##port": 6262,
      "##pical": 6263,
      "##hn": 6264,
      "##goon": 6265,
      "##wom": 6266,
      "##where": 6267,
      "##fas": 6268,
      "##mark": 6269,
      "##mering": 6270,
      "##erned": 6271,
      "inn": 6272,
      "##rest": 6273,
      "oncoming": 6274,
      "anvil": 6275,
      "ancient": 6276,
      "##alo": 6277,
      "##alized": 6278,
      "##alia": 6279,
      "tot": 6280,
      "toned": 6281,
      "toli": 6282,
      "toll": 6283,
      "##ckoo": 6284,
      "##irling": 6285,
      "##asy": 6286,
      "##asaki": 6287,
      "manip": 6288,
      "manne": 6289,
      "neg": 6290,
      "peers": 6291,
      "##icine": 6292,
      "shit": 6293,
      "shield": 6294,
      "##igating": 6295,
      "buds": 6296,
      "##urt": 6297,
      "chip": 6298,
      "##cement": 6299,
      "##ami": 6300,
      "##ama": 6301,
      "blown": 6302,
      "##andise": 6303,
      "downward": 6304,
      "##ripe": 6305,
      "waling": 6306,
      "lagoon": 6307,
      "##rus": 6308,
      "snake": 6309,
      "cater": 6310,
      "picks": 6311,
      "flu": 6312,
      "flank": 6313,
      "##stick": 6314,
      "snowman": 6315,
      "snowmo": 6316,
      "basem": 6317,
      "bystand": 6318,
      "trainer": 6319,
      "pharmac": 6320,
      "##nishing": 6321,
      "backhand": 6322,
      "airways": 6323,
      "airstri": 6324,
      "coaster": 6325,
      "##ycling": 6326,
      "##ghetti": 6327,
      "pokes": 6328,
      "ash": 6329,
      "mote": 6330,
      "elementary": 6331,
      "otherwise": 6332,
      "constru": 6333,
      "alike": 6334,
      "brownies": 6335,
      "sucking": 6336,
      "intense": 6337,
      "spl": 6338,
      "swords": 6339,
      "##rought": 6340,
      "sling": 6341,
      "compartment": 6342,
      "##ements": 6343,
      "clyd": 6344,
      "##shine": 6345,
      "##rise": 6346,
      "##esto": 6347,
      "##ago": 6348,
      "soil": 6349,
      "sofas": 6350,
      "##ggled": 6351,
      "lotion": 6352,
      "able": 6353,
      "dive": 6354,
      "surfboarder": 6355,
      "flowery": 6356,
      "##ques": 6357,
      "standard": 6358,
      "sunshine": 6359,
      "sunrise": 6360,
      "kiteboarding": 6361,
      "arcade": 6362,
      "brides": 6363,
      "camels": 6364,
      "camper": 6365,
      "birdhouse": 6366,
      "hydrants": 6367,
      "perfe": 6368,
      "taller": 6369,
      "mossy": 6370,
      "musc": 6371,
      "boxed": 6372,
      "plated": 6373,
      "##acts": 6374,
      "##tenance": 6375,
      "cord": 6376,
      "bron": 6377,
      "paste": 6378,
      "lovely": 6379,
      "univers": 6380,
      "apparel": 6381,
      "curious": 6382,
      "curiously": 6383,
      "sleeves": 6384,
      "amp": 6385,
      "refridgerator": 6386,
      "forehead": 6387,
      "poll": 6388,
      "polit": 6389,
      "pairs": 6390,
      "##usting": 6391,
      "exit": 6392,
      "except": 6393,
      "unp": 6394,
      "mature": 6395,
      "hund": 6396,
      "states": 6397,
      "creation": 6398,
      "balanced": 6399,
      "beauty": 6400,
      "typical": 6401,
      "concerned": 6402,
      "edges": 6403,
      "incline": 6404,
      "trailers": 6405,
      "layers": 6406,
      "cleaner": 6407,
      "costumed": 6408,
      "gloom": 6409,
      "facial": 6410,
      "ladle": 6411,
      "laden": 6412,
      "milking": 6413,
      "directing": 6414,
      "penny": 6415,
      "wireless": 6416,
      "blooming": 6417,
      "packages": 6418,
      "directional": 6419,
      "centerpiece": 6420,
      "formations": 6421,
      "job": 6422,
      "##bbery": 6423,
      "##bbling": 6424,
      "##ucting": 6425,
      "happen": 6426,
      "advertises": 6427,
      "advertisements": 6428,
      "reflections": 6429,
      "frames": 6430,
      "strolls": 6431,
      "furnishing": 6432,
      "medicine": 6433,
      "converse": 6434,
      "casino": 6435,
      "naps": 6436,
      "napkins": 6437,
      "stars": 6438,
      "starts": 6439,
      "collect": 6440,
      "blocked": 6441,
      "drag": 6442,
      "product": 6443,
      "wetsuits": 6444,
      "angels": 6445,
      "presents": 6446,
      "repres": 6447,
      "celebratory": 6448,
      "positions": 6449,
      "depar": 6450,
      "department": 6451,
      "fountains": 6452,
      "dolls": 6453,
      "conducting": 6454,
      "tailgate": 6455,
      "aprons": 6456,
      "##post": 6457,
      "washington": 6458,
      "dense": 6459,
      "crouched": 6460,
      "crouches": 6461,
      "glides": 6462,
      "noodle": 6463,
      "certain": 6464,
      "filming": 6465,
      "usa": 6466,
      "parachutes": 6467,
      "taste": 6468,
      "examine": 6469,
      "suspenders": 6470,
      "maintenance": 6471,
      "washroom": 6472,
      "bounce": 6473,
      "numeral": 6474,
      "creepy": 6475,
      "windsurfer": 6476,
      "cuckoo": 6477,
      "saddle": 6478,
      "pressure": 6479,
      "torn": 6480,
      "cheeses": 6481,
      "princess": 6482,
      "kiwi": 6483,
      "invest": 6484,
      "bundle": 6485,
      "bundled": 6486,
      "bundles": 6487,
      "focused": 6488,
      "upwards": 6489,
      "health": 6490,
      "anticip": 6491,
      "needle": 6492,
      "shaded": 6493,
      "competitive": 6494,
      "merma": 6495,
      "regular": 6496,
      "texas": 6497,
      "comfortable": 6498,
      "dye": 6499,
      "misses": 6500,
      "rugs": 6501,
      "route": 6502,
      "##namon": 6503,
      "teammates": 6504,
      "opponents": 6505,
      "keeps": 6506,
      "melted": 6507,
      "wandering": 6508,
      "destination": 6509,
      "destinations": 6510,
      "column": 6511,
      "materials": 6512,
      "burgers": 6513,
      "southw": 6514,
      "strings": 6515,
      "cheeks": 6516,
      "donkeys": 6517,
      "citrus": 6518,
      "yogurt": 6519,
      "involving": 6520,
      "ticket": 6521,
      "beads": 6522,
      "channel": 6523,
      "historical": 6524,
      "segway": 6525,
      "combination": 6526,
      "lettering": 6527,
      "attendant": 6528,
      "rabbits": 6529,
      "rimmed": 6530,
      "spaghetti": 6531,
      "appetizers": 6532,
      "depicting": 6533,
      "divider": 6534,
      "croissants": 6535,
      "dropping": 6536,
      "grasping": 6537,
      "cheerleaders": 6538,
      "senior": 6539,
      "target": 6540,
      "instructions": 6541,
      "techn": 6542,
      "hauling": 6543,
      "promin": 6544,
      "specific": 6545,
      "tilted": 6546,
      "trotting": 6547,
      "dealer": 6548,
      "bringing": 6549,
      "contempl": 6550,
      "separated": 6551,
      "describe": 6552,
      "merchandise": 6553,
      "dvd": 6554,
      "shawl": 6555,
      "italian": 6556,
      "sweeps": 6557,
      "biplane": 6558,
      "acrobatic": 6559,
      "sidelines": 6560,
      "yankees": 6561,
      "lasso": 6562,
      "pooh": 6563,
      "tinker": 6564,
      "tricycle": 6565,
      "varying": 6566,
      "analog": 6567,
      "seesaw": 6568,
      "intricate": 6569,
      "equestrian": 6570,
      "grizzly": 6571,
      "recreational": 6572,
      "radiator": 6573,
      "affixed": 6574,
      "octopus": 6575,
      "establishment": 6576,
      "barely": 6577,
      "cinnamon": 6578,
      "determ": 6579,
      "jazz": 6580,
      "jesus": 6581,
      "kabo": 6582,
      "kawasaki": 6583,
      "ruler": 6584,
      "resemb": 6585,
      "virgin": 6586,
      "vibrant": 6587,
      "##woman": 6588,
      "toliet": 6589,
      "mannequ": 6590,
      "snowmobile": 6591,
      "airstrip": 6592,
      "university": 6593,
      "furnishings": 6594,
      "mermaid": 6595,
      "00": 6596,
      "11": 6597,
      "19": 6598,
      "25": 6599,
      "ara": 6600,
      "age": 6601,
      "aim": 6602,
      "aboard": 6603,
      "bom": 6604,
      "cue": 6605,
      "cant": 6606,
      "crick": 6607,
      "cry": 6608,
      "cave": 6609,
      "cages": 6610,
      "cuc": 6611,
      "cycling": 6612,
      "ding": 6613,
      "dug": 6614,
      "dread": 6615,
      "dorm": 6616,
      "ever": 6617,
      "fet": 6618,
      "fits": 6619,
      "fav": 6620,
      "france": 6621,
      "faded": 6622,
      "gang": 6623,
      "ginger": 6624,
      "hy": 6625,
      "hen": 6626,
      "hop": 6627,
      "hid": 6628,
      "hate": 6629,
      "icy": 6630,
      "kis": 6631,
      "kris": 6632,
      "las": 6633,
      "late": 6634,
      "lets": 6635,
      "lanes": 6636,
      "linger": 6637,
      "master": 6638,
      "norm": 6639,
      "nails": 6640,
      "ore": 6641,
      "peng": 6642,
      "panc": 6643,
      "praying": 6644,
      "punk": 6645,
      "rum": 6646,
      "ses": 6647,
      "sorts": 6648,
      "sque": 6649,
      "sony": 6650,
      "tem": 6651,
      "trench": 6652,
      "unis": 6653,
      "yo": 6654,
      "yet": 6655,
      "zuc": 6656,
      "##ect": 6657,
      "##dor": 6658,
      "##dled": 6659,
      "##dale": 6660,
      "##dry": 6661,
      "##dinary": 6662,
      "##rase": 6663,
      "##aust": 6664,
      "##aiss": 6665,
      "##aired": 6666,
      "##bird": 6667,
      "##ci": 6668,
      "##count": 6669,
      "##ua": 6670,
      "##uum": 6671,
      "##uces": 6672,
      "##uah": 6673,
      "##tes": 6674,
      "##tel": 6675,
      "##vas": 6676,
      "##vard": 6677,
      "##national": 6678,
      "##xim": 6679,
      "##su": 6680,
      "##sy": 6681,
      "##sts": 6682,
      "##por": 6683,
      "##pine": 6684,
      "##huah": 6685,
      "##ga": 6686,
      "##green": 6687,
      "##wed": 6688,
      "##wor": 6689,
      "##fri": 6690,
      "##ked": 6691,
      "##kward": 6692,
      "##mal": 6693,
      "##mart": 6694,
      "##annel": 6695,
      "##len": 6696,
      "##leg": 6697,
      "##reds": 6698,
      "##reading": 6699,
      "##att": 6700,
      "##roid": 6701,
      "sta": 6702,
      "stored": 6703,
      "##esdale": 6704,
      "toe": 6705,
      "isn": 6706,
      "##ont": 6707,
      "##onally": 6708,
      "##asts": 6709,
      "##asion": 6710,
      "##ashing": 6711,
      "##orite": 6712,
      "##etic": 6713,
      "mand": 6714,
      "manu": 6715,
      "mang": 6716,
      "manic": 6717,
      "##chini": 6718,
      "##opol": 6719,
      "##opard": 6720,
      "##opened": 6721,
      "##ilts": 6722,
      "##raction": 6723,
      "##otard": 6724,
      "areas": 6725,
      "neut": 6726,
      "pews": 6727,
      "##iced": 6728,
      "##icago": 6729,
      "atm": 6730,
      "shell": 6731,
      "shred": 6732,
      "beware": 6733,
      "##aber": 6734,
      "bod": 6735,
      "bost": 6736,
      "##urger": 6737,
      "chu": 6738,
      "chat": 6739,
      "chim": 6740,
      "chap": 6741,
      "chalk": 6742,
      "chub": 6743,
      "chicago": 6744,
      "##eboard": 6745,
      "##eburger": 6746,
      "travers": 6747,
      "strewn": 6748,
      "##hern": 6749,
      "##amese": 6750,
      "fift": 6751,
      "##ffle": 6752,
      "##riers": 6753,
      "walmart": 6754,
      "youngsters": 6755,
      "perspe": 6756,
      "law": 6757,
      "laps": 6758,
      "upset": 6759,
      "coupe": 6760,
      "batch": 6761,
      "ribs": 6762,
      "flop": 6763,
      "flops": 6764,
      "flannel": 6765,
      "##stal": 6766,
      "##stract": 6767,
      "seash": 6768,
      "basil": 6769,
      "basic": 6770,
      "##una": 6771,
      "playhouse": 6772,
      "mens": 6773,
      "sidecar": 6774,
      "busines": 6775,
      "signing": 6776,
      "##umn": 6777,
      "##umber": 6778,
      "backed": 6779,
      "airfield": 6780,
      "coated": 6781,
      "skaters": 6782,
      "moto": 6783,
      "likes": 6784,
      "##zzle": 6785,
      "conven": 6786,
      "overh": 6787,
      "##aped": 6788,
      "align": 6789,
      "alter": 6790,
      "wax": 6791,
      "brownie": 6792,
      "sushi": 6793,
      "height": 6794,
      "lei": 6795,
      "leopard": 6796,
      "leotard": 6797,
      "skiies": 6798,
      "littered": 6799,
      "spreading": 6800,
      "disney": 6801,
      "swan": 6802,
      "bearing": 6803,
      "graf": 6804,
      "grain": 6805,
      "grace": 6806,
      "slip": 6807,
      "scre": 6808,
      "rared": 6809,
      "windm": 6810,
      "toiletries": 6811,
      "clas": 6812,
      "##ship": 6813,
      "chairlift": 6814,
      "##forcement": 6815,
      "##estic": 6816,
      "underground": 6817,
      "underpass": 6818,
      "##formed": 6819,
      "guides": 6820,
      "##ggle": 6821,
      "coverings": 6822,
      "hatch": 6823,
      "livingroom": 6824,
      "bows": 6825,
      "abstract": 6826,
      "enforcement": 6827,
      "##dog": 6828,
      "skydi": 6829,
      "banks": 6830,
      "showroom": 6831,
      "sheepdog": 6832,
      "address": 6833,
      "hilly": 6834,
      "views": 6835,
      "doubles": 6836,
      "passport": 6837,
      "daylight": 6838,
      "wife": 6839,
      "##ousine": 6840,
      "prob": 6841,
      "proper": 6842,
      "marine": 6843,
      "marmal": 6844,
      "moon": 6845,
      "cameram": 6846,
      "workout": 6847,
      "crosscount": 6848,
      "coloring": 6849,
      "bagels": 6850,
      "lost": 6851,
      "breath": 6852,
      "contact": 6853,
      "stew": 6854,
      "steers": 6855,
      "orders": 6856,
      "ordinary": 6857,
      "##corn": 6858,
      "##berry": 6859,
      "curry": 6860,
      "curling": 6861,
      "attraction": 6862,
      "armed": 6863,
      "restaurants": 6864,
      "cann": 6865,
      "canvas": 6866,
      "resid": 6867,
      "televisions": 6868,
      "nightcl": 6869,
      "hovering": 6870,
      "dinning": 6871,
      "monopol": 6872,
      "shoppers": 6873,
      "exper": 6874,
      "unb": 6875,
      "united": 6876,
      "unhap": 6877,
      "unripe": 6878,
      "unopened": 6879,
      "paying": 6880,
      "deckered": 6881,
      "given": 6882,
      "greasy": 6883,
      "battery": 6884,
      "balding": 6885,
      "england": 6886,
      "garnished": 6887,
      "helmeted": 6888,
      "assisting": 6889,
      "wired": 6890,
      "profile": 6891,
      "quart": 6892,
      "quaint": 6893,
      "##leton": 6894,
      "hips": 6895,
      "packs": 6896,
      "duct": 6897,
      "##fact": 6898,
      "curbside": 6899,
      "hammering": 6900,
      "strung": 6901,
      "crazy": 6902,
      "international": 6903,
      "squares": 6904,
      "##tube": 6905,
      "circles": 6906,
      "discs": 6907,
      "turban": 6908,
      "raise": 6909,
      "checker": 6910,
      "checkpoint": 6911,
      "chops": 6912,
      "choppy": 6913,
      "solitary": 6914,
      "retail": 6915,
      "juggles": 6916,
      "blend": 6917,
      "casually": 6918,
      "warns": 6919,
      "burnt": 6920,
      "starring": 6921,
      "collecting": 6922,
      "drain": 6923,
      "dramat": 6924,
      "angles": 6925,
      "##flies": 6926,
      "celebrates": 6927,
      "sprinkling": 6928,
      "sprays": 6929,
      "##liners": 6930,
      "folks": 6931,
      "shallows": 6932,
      "boulders": 6933,
      "##ensely": 6934,
      "steaming": 6935,
      "powered": 6936,
      "kayaker": 6937,
      "completing": 6938,
      "protru": 6939,
      "dais": 6940,
      "finishing": 6941,
      "safari": 6942,
      "parasails": 6943,
      "limo": 6944,
      "limousine": 6945,
      "charger": 6946,
      "collie": 6947,
      "fabrics": 6948,
      "active": 6949,
      "tosses": 6950,
      "delivering": 6951,
      "handleb": 6952,
      "##ifier": 6953,
      "exhaust": 6954,
      "awkward": 6955,
      "simul": 6956,
      "operated": 6957,
      "buffalo": 6958,
      "cubicle": 6959,
      "film": 6960,
      "liquor": 6961,
      "butterflies": 6962,
      "lounges": 6963,
      "fairly": 6964,
      "taxiing": 6965,
      "cranes": 6966,
      "trolly": 6967,
      "scaffold": 6968,
      "sniffs": 6969,
      "geish": 6970,
      "caption": 6971,
      "captured": 6972,
      "returns": 6973,
      "washes": 6974,
      "descending": 6975,
      "bounces": 6976,
      "gazes": 6977,
      "shrubbery": 6978,
      "grinning": 6979,
      "wares": 6980,
      "fedex": 6981,
      "sparring": 6982,
      "britain": 6983,
      "goog": 6984,
      "nursing": 6985,
      "tackling": 6986,
      "peaceful": 6987,
      "records": 6988,
      "scales": 6989,
      "jewish": 6990,
      "youths": 6991,
      "cheeseburger": 6992,
      "rapid": 6993,
      "seaside": 6994,
      "sleeveless": 6995,
      "lemonade": 6996,
      "everywhere": 6997,
      "popcorn": 6998,
      "blinds": 6999,
      "eager": 7000,
      "latin": 7001,
      "pretend": 7002,
      "pretends": 7003,
      "vacuum": 7004,
      "beams": 7005,
      "competitor": 7006,
      "linked": 7007,
      "sweets": 7008,
      "clustered": 7009,
      "emerging": 7010,
      "participate": 7011,
      "dyed": 7012,
      "ruins": 7013,
      "##maids": 7014,
      "install": 7015,
      "aqua": 7016,
      "shares": 7017,
      "textbook": 7018,
      "firetrucks": 7019,
      "communic": 7020,
      "melon": 7021,
      "wraps": 7022,
      "wander": 7023,
      "scrabble": 7024,
      "victory": 7025,
      "named": 7026,
      "renaiss": 7027,
      "200": 7028,
      "201": 7029,
      "browsing": 7030,
      "citiz": 7031,
      "palace": 7032,
      "tickets": 7033,
      "breastfe": 7034,
      "easy": 7035,
      "oxen": 7036,
      "innertube": 7037,
      "skeleton": 7038,
      "snuggling": 7039,
      "snuggled": 7040,
      "currently": 7041,
      "biscuit": 7042,
      "divided": 7043,
      "croissant": 7044,
      "cables": 7045,
      "mmm": 7046,
      "search": 7047,
      "flavored": 7048,
      "ornaments": 7049,
      "ornamental": 7050,
      "drops": 7051,
      "knocked": 7052,
      "paneled": 7053,
      "tethered": 7054,
      "announ": 7055,
      "chihuah": 7056,
      "surgical": 7057,
      "lipstick": 7058,
      "graveyard": 7059,
      "diagonally": 7060,
      "sunbathing": 7061,
      "provide": 7062,
      "rollerskating": 7063,
      "cramped": 7064,
      "keny": 7065,
      "murky": 7066,
      "siamese": 7067,
      "maneu": 7068,
      "buddh": 7069,
      "document": 7070,
      "scientist": 7071,
      "brother": 7072,
      "gadgets": 7073,
      "lonely": 7074,
      "slatted": 7075,
      "unicycle": 7076,
      "leftover": 7077,
      "pleasant": 7078,
      "dangerous": 7079,
      "nestled": 7080,
      "unders": 7081,
      "velvet": 7082,
      "vader": 7083,
      "vandalized": 7084,
      "bystanders": 7085,
      "clydesdale": 7086,
      "bridesmaids": 7087,
      "hundreds": 7088,
      "gloomy": 7089,
      "technology": 7090,
      "prominent": 7091,
      "determined": 7092,
      "arab": 7093,
      "cricket": 7094,
      "favorite": 7095,
      "kisses": 7096,
      "normal": 7097,
      "pengu": 7098,
      "pancakes": 7099,
      "sesame": 7100,
      "temple": 7101,
      "unison": 7102,
      "zucchini": 7103,
      "##dryer": 7104,
      "##friend": 7105,
      "neutral": 7106,
      "boston": 7107,
      "chubby": 7108,
      "perspective": 7109,
      "businesses": 7110,
      "marmalade": 7111,
      "crosscountry": 7112,
      "nightclub": 7113,
      "monopoly": 7114,
      "unhappy": 7115,
      "renaissance": 7116,
      "chihuahua": 7117,
      "12": 7118,
      "aid": 7119,
      "bits": 7120,
      "bound": 7121,
      "baz": 7122,
      "binder": 7123,
      "cash": 7124,
      "dar": 7125,
      "dair": 7126,
      "dent": 7127,
      "dav": 7128,
      "fid": 7129,
      "fell": 7130,
      "find": 7131,
      "fetch": 7132,
      "gor": 7133,
      "gut": 7134,
      "gone": 7135,
      "goth": 7136,
      "galley": 7137,
      "gener": 7138,
      "gho": 7139,
      "hope": 7140,
      "hooks": 7141,
      "jal": 7142,
      "kill": 7143,
      "lan": 7144,
      "lite": 7145,
      "less": 7146,
      "loll": 7147,
      "mp": 7148,
      "mad": 7149,
      "mong": 7150,
      "mich": 7151,
      "mower": 7152,
      "munching": 7153,
      "ni": 7154,
      "netting": 7155,
      "noon": 7156,
      "national": 7157,
      "oar": 7158,
      "osc": 7159,
      "pp": 7160,
      "pel": 7161,
      "pam": 7162,
      "pum": 7163,
      "packet": 7164,
      "pins": 7165,
      "punch": 7166,
      "ponies": 7167,
      "rop": 7168,
      "roun": 7169,
      "rather": 7170,
      "sam": 7171,
      "samp": 7172,
      "session": 7173,
      "sons": 7174,
      "taco": 7175,
      "tanger": 7176,
      "unt": 7177,
      "vers": 7178,
      "vio": 7179,
      "wo": 7180,
      "wan": 7181,
      "wil": 7182,
      "ward": 7183,
      "wade": 7184,
      "wrong": 7185,
      "western": 7186,
      "wishes": 7187,
      "yaw": 7188,
      "yummy": 7189,
      "zip": 7190,
      "zipping": 7191,
      "##iors": 7192,
      "##east": 7193,
      "##rd": 7194,
      "##rin": 7195,
      "##rid": 7196,
      "##au": 7197,
      "##aar": 7198,
      "##bear": 7199,
      "##bone": 7200,
      "##bled": 7201,
      "##bath": 7202,
      "##con": 7203,
      "##cap": 7204,
      "##crop": 7205,
      "##ucc": 7206,
      "##ties": 7207,
      "##orou": 7208,
      "##nched": 7209,
      "##sball": 7210,
      "##pm": 7211,
      "##par": 7212,
      "##pill": 7213,
      "##pipe": 7214,
      "##pucc": 7215,
      "##grown": 7216,
      "##walks": 7217,
      "##fire": 7218,
      "##keboard": 7219,
      "##iner": 7220,
      "##ita": 7221,
      "##itual": 7222,
      "##erina": 7223,
      "thinking": 7224,
      "##levard": 7225,
      "##ready": 7226,
      "##atively": 7227,
      "##robe": 7228,
      "##romat": 7229,
      "##rofo": 7230,
      "##enous": 7231,
      "stay": 7232,
      "staff": 7233,
      "stem": 7234,
      "##edic": 7235,
      "##esad": 7236,
      "touring": 7237,
      "##orter": 7238,
      "##eties": 7239,
      "##owed": 7240,
      "manual": 7241,
      "##chet": 7242,
      "##iser": 7243,
      "##lable": 7244,
      "##ooding": 7245,
      "whom": 7246,
      "whip": 7247,
      "whipped": 7248,
      "##elt": 7249,
      "##elle": 7250,
      "##elve": 7251,
      "##ram": 7252,
      "twirling": 7253,
      "##ots": 7254,
      "##olo": 7255,
      "peaks": 7256,
      "shark": 7257,
      "##igenous": 7258,
      "womans": 7259,
      "bee": 7260,
      "bug": 7261,
      "bugg": 7262,
      "boiled": 7263,
      "##urst": 7264,
      "##uristic": 7265,
      "skying": 7266,
      "skill": 7267,
      "choo": 7268,
      "charm": 7269,
      "chests": 7270,
      "challen": 7271,
      "chased": 7272,
      "##amel": 7273,
      "##locks": 7274,
      "tabletop": 7275,
      "##ffel": 7276,
      "smir": 7277,
      "smelling": 7278,
      "outcrop": 7279,
      "##seat": 7280,
      "paris": 7281,
      "grouping": 7282,
      "lazy": 7283,
      "ups": 7284,
      "upsc": 7285,
      "carp": 7286,
      "caramel": 7287,
      "##ulous": 7288,
      "##ssel": 7289,
      "ripped": 7290,
      "floored": 7291,
      "reun": 7292,
      "reeds": 7293,
      "review": 7294,
      "girlfriend": 7295,
      "##antily": 7296,
      "surge": 7297,
      "closing": 7298,
      "##urely": 7299,
      "##enter": 7300,
      "##ented": 7301,
      "parka": 7302,
      "parks": 7303,
      "sidewalks": 7304,
      "tends": 7305,
      "fort": 7306,
      "childs": 7307,
      "backside": 7308,
      "backseat": 7309,
      "airliners": 7310,
      "kits": 7311,
      "coaches": 7312,
      "cobbled": 7313,
      "shirted": 7314,
      "ballerina": 7315,
      "asking": 7316,
      "aspar": 7317,
      "motel": 7318,
      "##ksh": 7319,
      "overgrown": 7320,
      "##ief": 7321,
      "ally": 7322,
      "alert": 7323,
      "alpine": 7324,
      "already": 7325,
      "motorboat": 7326,
      "wavy": 7327,
      "wakeboard": 7328,
      "##onges": 7329,
      "heat": 7330,
      "leaking": 7331,
      "intensely": 7332,
      "spool": 7333,
      "spending": 7334,
      "spider": 7335,
      "sponges": 7336,
      "disg": 7337,
      "swamp": 7338,
      "handled": 7339,
      "handling": 7340,
      "grains": 7341,
      "scot": 7342,
      "scri": 7343,
      "scarves": 7344,
      "scouts": 7345,
      "scantily": 7346,
      "rag": 7347,
      "rafts": 7348,
      "compart": 7349,
      "##ressed": 7350,
      "boarded": 7351,
      "clip": 7352,
      "boating": 7353,
      "deere": 7354,
      "deformed": 7355,
      "##agie": 7356,
      "##agus": 7357,
      "offering": 7358,
      "guest": 7359,
      "guided": 7360,
      "sox": 7361,
      "firewor": 7362,
      "mount": 7363,
      "dives": 7364,
      "##ortant": 7365,
      "headlights": 7366,
      "engra": 7367,
      "enough": 7368,
      "fences": 7369,
      "banners": 7370,
      "sunflowers": 7371,
      "study": 7372,
      "drilling": 7373,
      "##nif": 7374,
      "lightly": 7375,
      "arched": 7376,
      "chevy": 7377,
      "passion": 7378,
      "mirrored": 7379,
      "wizard": 7380,
      "proce": 7381,
      "proced": 7382,
      "program": 7383,
      "mos": 7384,
      "animated": 7385,
      "workmen": 7386,
      "hairy": 7387,
      "hairdryer": 7388,
      "sauna": 7389,
      "##venile": 7390,
      "ago": 7391,
      "broad": 7392,
      "varieties": 7393,
      "lock": 7394,
      "lockers": 7395,
      "patrol": 7396,
      "patches": 7397,
      "emo": 7398,
      "emot": 7399,
      "emitting": 7400,
      "contin": 7401,
      "contra": 7402,
      "rocket": 7403,
      "mean": 7404,
      "mega": 7405,
      "steal": 7406,
      "apparent": 7407,
      "##berries": 7408,
      "wineglass": 7409,
      "attach": 7410,
      "barriers": 7411,
      "armchair": 7412,
      "canes": 7413,
      "canon": 7414,
      "canyon": 7415,
      "decorate": 7416,
      "decorating": 7417,
      "##enger": 7418,
      "controlled": 7419,
      "resp": 7420,
      "videot": 7421,
      "##body": 7422,
      "##boxing": 7423,
      "hoops": 7424,
      "hoagie": 7425,
      "meatball": 7426,
      "raining": 7427,
      "raincoat": 7428,
      "exiting": 7429,
      "exotic": 7430,
      "rowboat": 7431,
      "carton": 7432,
      "##isters": 7433,
      "striking": 7434,
      "strike": 7435,
      "mats": 7436,
      "pause": 7437,
      "gift": 7438,
      "##rical": 7439,
      "hula": 7440,
      "blank": 7441,
      "footp": 7442,
      "screened": 7443,
      "numbered": 7444,
      "halfway": 7445,
      "halfpipe": 7446,
      "clothed": 7447,
      "credit": 7448,
      "##ize": 7449,
      "flowering": 7450,
      "forklift": 7451,
      "##scri": 7452,
      "cappucc": 7453,
      "engaging": 7454,
      "bandana": 7455,
      "picket": 7456,
      "##sicle": 7457,
      "bushels": 7458,
      "wheelie": 7459,
      "artic": 7460,
      "directs": 7461,
      "penn": 7462,
      "styrofo": 7463,
      "butts": 7464,
      "butcher": 7465,
      "mache": 7466,
      "applying": 7467,
      "indigenous": 7468,
      "quar": 7469,
      "quesad": 7470,
      "pointy": 7471,
      "packing": 7472,
      "packaged": 7473,
      "delight": 7474,
      "instructs": 7475,
      "duffel": 7476,
      "partner": 7477,
      "cracking": 7478,
      "placemat": 7479,
      "clutches": 7480,
      "jog": 7481,
      "john": 7482,
      "weaves": 7483,
      "interview": 7484,
      "curtained": 7485,
      "chickens": 7486,
      "doesn": 7487,
      "businessman": 7488,
      "kickboxing": 7489,
      "##bank": 7490,
      "overlook": 7491,
      "gardening": 7492,
      "antiques": 7493,
      "africa": 7494,
      "messenger": 7495,
      "##lighted": 7496,
      "posting": 7497,
      "harley": 7498,
      "strolling": 7499,
      "approach": 7500,
      "extend": 7501,
      "solid": 7502,
      "stormy": 7503,
      "crumb": 7504,
      "medit": 7505,
      "median": 7506,
      "retro": 7507,
      "bottoms": 7508,
      "juvenile": 7509,
      "gently": 7510,
      "visor": 7511,
      "speedboat": 7512,
      "burned": 7513,
      "starbu": 7514,
      "draft": 7515,
      "drapes": 7516,
      "tater": 7517,
      "tattered": 7518,
      "explo": 7519,
      "mixes": 7520,
      "president": 7521,
      "splashed": 7522,
      "magnif": 7523,
      "flipped": 7524,
      "labor": 7525,
      "typewrit": 7526,
      "boulevard": 7527,
      "##ensers": 7528,
      "martini": 7529,
      "balconies": 7530,
      "festive": 7531,
      "canoeing": 7532,
      "complex": 7533,
      "projected": 7534,
      "transporting": 7535,
      "limes": 7536,
      "embank": 7537,
      "embroid": 7538,
      "vivid": 7539,
      "alleyway": 7540,
      "commuters": 7541,
      "actors": 7542,
      "hearts": 7543,
      "masked": 7544,
      "grove": 7545,
      "urinating": 7546,
      "entertains": 7547,
      "entertaining": 7548,
      "glue": 7549,
      "glider": 7550,
      "rubble": 7551,
      "tucked": 7552,
      "presented": 7553,
      "taxis": 7554,
      "infield": 7555,
      "stringed": 7556,
      "lighter": 7557,
      "brace": 7558,
      "braided": 7559,
      "films": 7560,
      "dunes": 7561,
      "parachut": 7562,
      "autumn": 7563,
      "elbow": 7564,
      "examined": 7565,
      "indicator": 7566,
      "ducky": 7567,
      "focusing": 7568,
      "marker": 7569,
      "slacks": 7570,
      "ordering": 7571,
      "ordered": 7572,
      "hamburgers": 7573,
      "##eboat": 7574,
      "captain": 7575,
      "captures": 7576,
      "captivity": 7577,
      "guns": 7578,
      "washed": 7579,
      "bouncy": 7580,
      "eighteen": 7581,
      "gazebo": 7582,
      "shrub": 7583,
      "numerals": 7584,
      "unusually": 7585,
      "fedora": 7586,
      "prim": 7587,
      "prize": 7588,
      "windsurfers": 7589,
      "cuddle": 7590,
      "tackled": 7591,
      "jewels": 7592,
      "obstacles": 7593,
      "brussel": 7594,
      "pressing": 7595,
      "presses": 7596,
      "tinfo": 7597,
      "peanuts": 7598,
      "castro": 7599,
      "inflated": 7600,
      "laundromat": 7601,
      "popsicle": 7602,
      "inspects": 7603,
      "scrubs": 7604,
      "arrive": 7605,
      "arrives": 7606,
      "related": 7607,
      "##ailable": 7608,
      "scratches": 7609,
      "campground": 7610,
      "campfire": 7611,
      "fryer": 7612,
      "vacation": 7613,
      "levels": 7614,
      "hawk": 7615,
      "elaborately": 7616,
      "alcoholic": 7617,
      "dete": 7618,
      "socializing": 7619,
      "measure": 7620,
      "characters": 7621,
      "escalators": 7622,
      "avoid": 7623,
      "available": 7624,
      "dynam": 7625,
      "troop": 7626,
      "trimmed": 7627,
      "finishes": 7628,
      "awaits": 7629,
      "messing": 7630,
      "##arella": 7631,
      "retrieving": 7632,
      "calculators": 7633,
      "dipped": 7634,
      "saucers": 7635,
      "galloping": 7636,
      "officials": 7637,
      "surprise": 7638,
      "important": 7639,
      "architect": 7640,
      "pineapples": 7641,
      "wonderful": 7642,
      "easel": 7643,
      "purchase": 7644,
      "pencil": 7645,
      "skyscrapers": 7646,
      "activity": 7647,
      "rollerblades": 7648,
      "bolts": 7649,
      "searching": 7650,
      "tusked": 7651,
      "reclining": 7652,
      "poorly": 7653,
      "bridle": 7654,
      "cheerleader": 7655,
      "pacific": 7656,
      "pacifier": 7657,
      "bumper": 7658,
      "chisel": 7659,
      "holiday": 7660,
      "cocktail": 7661,
      "sundown": 7662,
      "seasoning": 7663,
      "dumping": 7664,
      "futon": 7665,
      "futuristic": 7666,
      "navig": 7667,
      "rushes": 7668,
      "task": 7669,
      "tasks": 7670,
      "therm": 7671,
      "peacocks": 7672,
      "sandwhiches": 7673,
      "amazed": 7674,
      "canada": 7675,
      "bales": 7676,
      "foosball": 7677,
      "those": 7678,
      "ankle": 7679,
      "atlantic": 7680,
      "assembly": 7681,
      "converted": 7682,
      "dispensers": 7683,
      "visitors": 7684,
      "effect": 7685,
      "hunched": 7686,
      "occasion": 7687,
      "skimpy": 7688,
      "plumbing": 7689,
      "spanish": 7690,
      "landscaping": 7691,
      "blossom": 7692,
      "question": 7693,
      "dominoes": 7694,
      "scrambled": 7695,
      "vietnamese": 7696,
      "lanterns": 7697,
      "irish": 7698,
      "mingle": 7699,
      "prair": 7700,
      "wades": 7701,
      "##closure": 7702,
      "manipul": 7703,
      "caterpill": 7704,
      "fluid": 7705,
      "baseman": 7706,
      "constructed": 7707,
      "political": 7708,
      "unpaved": 7709,
      "representing": 7710,
      "departing": 7711,
      "southwestern": 7712,
      "contemplating": 7713,
      "tinkerbell": 7714,
      "mannequin": 7715,
      "aims": 7716,
      "bomber": 7717,
      "crystal": 7718,
      "dingy": 7719,
      "evergreen": 7720,
      "hidden": 7721,
      "lingerie": 7722,
      "squee": 7723,
      "mangoes": 7724,
      "manicured": 7725,
      "chimney": 7726,
      "floppy": 7727,
      "motoro": 7728,
      "screaming": 7729,
      "probably": 7730,
      "cameraman": 7731,
      "checkerboard": 7732,
      "handlebars": 7733,
      "geisha": 7734,
      "2008": 7735,
      "penguin": 7736,
      "bazaar": 7737,
      "dairy": 7738,
      "gothic": 7739,
      "ghost": 7740,
      "lollip": 7741,
      "mp3": 7742,
      "oscar": 7743,
      "pamph": 7744,
      "rounding": 7745,
      "version": 7746,
      "yawning": 7747,
      "##orous": 7748,
      "upscale": 7749,
      "reunion": 7750,
      "asparagus": 7751,
      "compartments": 7752,
      "fireworks": 7753,
      "cappuccino": 7754,
      "styrofoam": 7755,
      "starbucks": 7756,
      "embankment": 7757,
      "tinfoil": 7758,
      "dynamite": 7759,
      "caterpillar": 7760,
      "!\"": 7761,
      "18": 7762,
      "15": 7763,
      "24": 7764,
      "33": 7765,
      "36": 7766,
      "3rd": 7767,
      "aj": 7768,
      "aer": 7769,
      "aver": 7770,
      "award": 7771,
      "astr": 7772,
      "broom": 7773,
      "bout": 7774,
      "baker": 7775,
      "brought": 7776,
      "cul": 7777,
      "cult": 7778,
      "crush": 7779,
      "civ": 7780,
      "dw": 7781,
      "dol": 7782,
      "dup": 7783,
      "dated": 7784,
      "esp": 7785,
      "flee": 7786,
      "fist": 7787,
      "fists": 7788,
      "gn": 7789,
      "gy": 7790,
      "gay": 7791,
      "gild": 7792,
      "grum": 7793,
      "hon": 7794,
      "hou": 7795,
      "hide": 7796,
      "hus": 7797,
      "husk": 7798,
      "hoping": 7799,
      "il": 7800,
      "ic": 7801,
      "idle": 7802,
      "jack": 7803,
      "kreme": 7804,
      "lou": 7805,
      "lun": 7806,
      "lions": 7807,
      "mile": 7808,
      "mul": 7809,
      "mild": 7810,
      "mare": 7811,
      "mating": 7812,
      "munch": 7813,
      "maz": 7814,
      "merry": 7815,
      "mama": 7816,
      "nad": 7817,
      "nast": 7818,
      "nort": 7819,
      "nike": 7820,
      "nuzz": 7821,
      "oll": 7822,
      "occupied": 7823,
      "options": 7824,
      "pc": 7825,
      "pm": 7826,
      "pun": 7827,
      "prist": 7828,
      "rd": 7829,
      "ras": 7830,
      "rig": 7831,
      "root": 7832,
      "ritual": 7833,
      "soph": 7834,
      "sams": 7835,
      "saber": 7836,
      "sisters": 7837,
      "tr": 7838,
      "tit": 7839,
      "tut": 7840,
      "tac": 7841,
      "testing": 7842,
      "tells": 7843,
      "ug": 7844,
      "ves": 7845,
      "via": 7846,
      "villa": 7847,
      "veter": 7848,
      "won": 7849,
      "wou": 7850,
      "wid": 7851,
      "wran": 7852,
      "waring": 7853,
      "yach": 7854,
      "yelling": 7855,
      "##iers": 7856,
      "##iver": 7857,
      "##iate": 7858,
      "##iky": 7859,
      "##eper": 7860,
      "##lane": 7861,
      "##dom": 7862,
      "##das": 7863,
      "##dges": 7864,
      "##rr": 7865,
      "##rast": 7866,
      "##ao": 7867,
      "##aid": 7868,
      "##aled": 7869,
      "##ailed": 7870,
      "##ba": 7871,
      "##bine": 7872,
      "##barrow": 7873,
      "##cub": 7874,
      "##cings": 7875,
      "##ux": 7876,
      "##ura": 7877,
      "##unt": 7878,
      "##tower": 7879,
      "##vro": 7880,
      "##vine": 7881,
      "##vesto": 7882,
      "##of": 7883,
      "##oire": 7884,
      "##oises": 7885,
      "##nes": 7886,
      "##nch": 7887,
      "##nail": 7888,
      "##yal": 7889,
      "##son": 7890,
      "##pd": 7891,
      "##pit": 7892,
      "##pace": 7893,
      "##pend": 7894,
      "##zu": 7895,
      "##zes": 7896,
      "##hell": 7897,
      "##hurst": 7898,
      "##game": 7899,
      "##gio": 7900,
      "##wh": 7901,
      "##wis": 7902,
      "##wag": 7903,
      "##fu": 7904,
      "##fied": 7905,
      "##mint": 7906,
      "##mely": 7907,
      "##mallow": 7908,
      "##00": 7909,
      "##jing": 7910,
      "##inate": 7911,
      "##inted": 7912,
      "##ito": 7913,
      "##itti": 7914,
      "##ero": 7915,
      "##erub": 7916,
      "##eria": 7917,
      "##lem": 7918,
      "##lear": 7919,
      "inse": 7920,
      "insp": 7921,
      "##remely": 7922,
      "anten": 7923,
      "##atten": 7924,
      "##arin": 7925,
      "##arian": 7926,
      "withe": 7927,
      "witha": 7928,
      "##ene": 7929,
      "##omet": 7930,
      "stalk": 7931,
      "stems": 7932,
      "stork": 7933,
      "stalks": 7934,
      "stilts": 7935,
      "##edded": 7936,
      "toes": 7937,
      "tots": 7938,
      "tofu": 7939,
      "##ckets": 7940,
      "##ondo": 7941,
      "##irs": 7942,
      "##orgio": 7943,
      "mantel": 7944,
      "##ouris": 7945,
      "##oupe": 7946,
      "##chi": 7947,
      "##changing": 7948,
      "##isher": 7949,
      "##isted": 7950,
      "##isley": 7951,
      "##lam": 7952,
      "##layed": 7953,
      "##ooking": 7954,
      "##oozing": 7955,
      "##ilight": 7956,
      "sitt": 7957,
      "whis": 7958,
      "##elding": 7959,
      "twig": 7960,
      "twent": 7961,
      "twelve": 7962,
      "twilight": 7963,
      "##olian": 7964,
      "necess": 7965,
      "pew": 7966,
      "peps": 7967,
      "##icer": 7968,
      "##icular": 7969,
      "shack": 7970,
      "shamp": 7971,
      "beag": 7972,
      "beets": 7973,
      "##ardi": 7974,
      "##arded": 7975,
      "bunt": 7976,
      "burying": 7977,
      "plac": 7978,
      "champ": 7979,
      "chats": 7980,
      "chicks": 7981,
      "chunk": 7982,
      "cherries": 7983,
      "changing": 7984,
      "cherub": 7985,
      "##vered": 7986,
      "##verty": 7987,
      "trade": 7988,
      "roam": 7989,
      "roasting": 7990,
      "royal": 7991,
      "streetlights": 7992,
      "##cepting": 7993,
      "##loaf": 7994,
      "plowing": 7995,
      "plump": 7996,
      "##ffy": 7997,
      "outer": 7998,
      "ith": 7999,
      "##rior": 8000,
      "##nter": 8001,
      "##ntable": 8002,
      "launching": 8003,
      "uphill": 8004,
      "upcoming": 8005,
      "##atee": 8006,
      "##ateur": 8007,
      "##rows": 8008,
      "##keeper": 8009,
      "snoozing": 8010,
      "##elds": 8011,
      "pike": 8012,
      "piping": 8013,
      "flash": 8014,
      "flush": 8015,
      "flashing": 8016,
      "##ste": 8017,
      "snowsh": 8018,
      "watery": 8019,
      "watercraft": 8020,
      "reacts": 8021,
      "seper": 8022,
      "sews": 8023,
      "based": 8024,
      "bases": 8025,
      "##unction": 8026,
      "##ples": 8027,
      "##antly": 8028,
      "hero": 8029,
      "heron": 8030,
      "herds": 8031,
      "signpost": 8032,
      "##inks": 8033,
      "rooms": 8034,
      "ford": 8035,
      "##imal": 8036,
      "##imeter": 8037,
      "coron": 8038,
      "bathes": 8039,
      "greenhouse": 8040,
      "poverty": 8041,
      "woodland": 8042,
      "livesto": 8043,
      "beached": 8044,
      "##zzarella": 8045,
      "##kswag": 8046,
      "conif": 8047,
      "##apen": 8048,
      "##ieving": 8049,
      "alt": 8050,
      "always": 8051,
      "motorists": 8052,
      "kitchenaid": 8053,
      "heated": 8054,
      "heating": 8055,
      "legg": 8056,
      "intent": 8057,
      "spilled": 8058,
      "spend": 8059,
      "spons": 8060,
      "spiky": 8061,
      "swift": 8062,
      "switch": 8063,
      "##illas": 8064,
      "clocktower": 8065,
      "handmade": 8066,
      "handwrit": 8067,
      "motorcy": 8068,
      "slot": 8069,
      "slim": 8070,
      "slum": 8071,
      "slats": 8072,
      "slips": 8073,
      "sliver": 8074,
      "sands": 8075,
      "scrap": 8076,
      "scary": 8077,
      "scape": 8078,
      "scaling": 8079,
      "rakes": 8080,
      "raids": 8081,
      "gamecub": 8082,
      "colt": 8083,
      "colour": 8084,
      "##aneous": 8085,
      "windowed": 8086,
      "##cco": 8087,
      "underway": 8088,
      "undergo": 8089,
      "decks": 8090,
      "##agna": 8091,
      "offer": 8092,
      "compute": 8093,
      "guarding": 8094,
      "soaking": 8095,
      "soars": 8096,
      "sodas": 8097,
      "cowork": 8098,
      "mounting": 8099,
      "trey": 8100,
      "treed": 8101,
      "dial": 8102,
      "divers": 8103,
      "##orters": 8104,
      "preform": 8105,
      "god": 8106,
      "goble": 8107,
      "goatee": 8108,
      "##quis": 8109,
      "##quito": 8110,
      "standup": 8111,
      "##dless": 8112,
      "counting": 8113,
      "county": 8114,
      "dripping": 8115,
      "sunken": 8116,
      "stucco": 8117,
      "kiteboard": 8118,
      "booze": 8119,
      "arches": 8120,
      "argu": 8121,
      "courthouse": 8122,
      "chevro": 8123,
      "brings": 8124,
      "perip": 8125,
      "perhap": 8126,
      "perimeter": 8127,
      "##anges": 8128,
      "days": 8129,
      "wipes": 8130,
      "marinar": 8131,
      "modi": 8132,
      "mozzarella": 8133,
      "##eye": 8134,
      "teddybear": 8135,
      "anime": 8136,
      "bicycl": 8137,
      "boxers": 8138,
      "plating": 8139,
      "restra": 8140,
      "longer": 8141,
      "##aces": 8142,
      "##tening": 8143,
      "sauces": 8144,
      "##essfully": 8145,
      "accepting": 8146,
      "tracksuit": 8147,
      "ridden": 8148,
      "corp": 8149,
      "bagging": 8150,
      "luggages": 8151,
      "whose": 8152,
      "lob": 8153,
      "cleared": 8154,
      "breat": 8155,
      "orig": 8156,
      "remove": 8157,
      "server": 8158,
      "barb": 8159,
      "barking": 8160,
      "barks": 8161,
      "highlighted": 8162,
      "amish": 8163,
      "amused": 8164,
      "amateur": 8165,
      "helped": 8166,
      "armoire": 8167,
      "telephones": 8168,
      "controlling": 8169,
      "videogame": 8170,
      "linens": 8171,
      "##diator": 8172,
      "househol": 8173,
      "##pected": 8174,
      "asians": 8175,
      "hoist": 8176,
      "hovers": 8177,
      "meatloaf": 8178,
      "mono": 8179,
      "homework": 8180,
      "afar": 8181,
      "rains": 8182,
      "swimwear": 8183,
      "exchanging": 8184,
      "rowboats": 8185,
      "unke": 8186,
      "units": 8187,
      "unpack": 8188,
      "unatten": 8189,
      "strips": 8190,
      "pavil": 8191,
      "paisley": 8192,
      "multitude": 8193,
      "novel": 8194,
      "##losion": 8195,
      "gifts": 8196,
      "giorgio": 8197,
      "huddling": 8198,
      "hunter": 8199,
      "stonehurst": 8200,
      "cloths": 8201,
      "crepes": 8202,
      "creme": 8203,
      "##lica": 8204,
      "##licate": 8205,
      "photography": 8206,
      "photographing": 8207,
      "tubing": 8208,
      "sticky": 8209,
      "##izes": 8210,
      "##ocad": 8211,
      "panels": 8212,
      "paneling": 8213,
      "submar": 8214,
      "ways": 8215,
      "know": 8216,
      "knight": 8217,
      "docking": 8218,
      "squirt": 8219,
      "##scent": 8220,
      "salads": 8221,
      "bands": 8222,
      "picker": 8223,
      "trails": 8224,
      "distorted": 8225,
      "climbers": 8226,
      "bulb": 8227,
      "plantains": 8228,
      "gloved": 8229,
      "assist": 8230,
      "bushy": 8231,
      "chocolates": 8232,
      "cause": 8233,
      "entire": 8234,
      "facade": 8235,
      "wheelbarrow": 8236,
      "policewoman": 8237,
      "graffitied": 8238,
      "milksh": 8239,
      "padded": 8240,
      "schoolgirl": 8241,
      "penns": 8242,
      "platforms": 8243,
      "styl": 8244,
      "wedged": 8245,
      "basketballs": 8246,
      "creamy": 8247,
      "backpacker": 8248,
      "century": 8249,
      "flatbread": 8250,
      "applied": 8251,
      "fisheye": 8252,
      "matches": 8253,
      "winning": 8254,
      "pedals": 8255,
      "packaging": 8256,
      "wells": 8257,
      "spoonful": 8258,
      "pretz": 8259,
      "clam": 8260,
      "struggle": 8261,
      "forms": 8262,
      "join": 8263,
      "joking": 8264,
      "weight": 8265,
      "cardigan": 8266,
      "businessmen": 8267,
      "fox": 8268,
      "discarded": 8269,
      "devil": 8270,
      "frilly": 8271,
      "turntable": 8272,
      "railings": 8273,
      "##rays": 8274,
      "relay": 8275,
      "seawe": 8276,
      "drumsticks": 8277,
      "checkers": 8278,
      "approxim": 8279,
      "leashed": 8280,
      "extremely": 8281,
      "loader": 8282,
      "crude": 8283,
      "sculpting": 8284,
      "juicer": 8285,
      "seeing": 8286,
      "casts": 8287,
      "speedboats": 8288,
      "wars": 8289,
      "warrior": 8290,
      "enjoyed": 8291,
      "spectator": 8292,
      "expensive": 8293,
      "explosion": 8294,
      "volkswag": 8295,
      "pawing": 8296,
      "repaired": 8297,
      "reporters": 8298,
      "replica": 8299,
      "paintbrush": 8300,
      "##actors": 8301,
      "cornbread": 8302,
      "workspace": 8303,
      "ornament": 8304,
      "beijing": 8305,
      "masks": 8306,
      "mascot": 8307,
      "dollar": 8308,
      "folk": 8309,
      "folder": 8310,
      "##coal": 8311,
      "piercings": 8312,
      "gladiator": 8313,
      "comforting": 8314,
      "lids": 8315,
      "stovet": 8316,
      "steamed": 8317,
      "shadowed": 8318,
      "transports": 8319,
      "daily": 8320,
      "dawn": 8321,
      "finance": 8322,
      "spreads": 8323,
      "limbs": 8324,
      "charcoal": 8325,
      "embedded": 8326,
      "actually": 8327,
      "observed": 8328,
      "entertainers": 8329,
      "propellor": 8330,
      "propellers": 8331,
      "excav": 8332,
      "glow": 8333,
      "tux": 8334,
      "##comes": 8335,
      "sections": 8336,
      "filmed": 8337,
      "##idson": 8338,
      "planks": 8339,
      "parachuting": 8340,
      "surroundings": 8341,
      "adorn": 8342,
      "wrestlers": 8343,
      "demanding": 8344,
      "fargo": 8345,
      "humans": 8346,
      "humorous": 8347,
      "friendly": 8348,
      "indicate": 8349,
      "movements": 8350,
      "##uffs": 8351,
      "##uffed": 8352,
      "dots": 8353,
      "rafters": 8354,
      "geomet": 8355,
      "captive": 8356,
      "steeples": 8357,
      "crops": 8358,
      "crook": 8359,
      "crochet": 8360,
      "puddles": 8361,
      "violinists": 8362,
      "superman": 8363,
      "unused": 8364,
      "stirring": 8365,
      "sparks": 8366,
      "gerb": 8367,
      "saddled": 8368,
      "##vania": 8369,
      "protect": 8370,
      "grip": 8371,
      "grim": 8372,
      "pressed": 8373,
      "recently": 8374,
      "connecting": 8375,
      "printer": 8376,
      "idly": 8377,
      "kiwis": 8378,
      "##loyed": 8379,
      "selecting": 8380,
      "newlywed": 8381,
      "quietly": 8382,
      "radar": 8383,
      "everything": 8384,
      "##ylon": 8385,
      "##ylvania": 8386,
      "monkeys": 8387,
      "excitedly": 8388,
      "latest": 8389,
      "pigs": 8390,
      "pigtails": 8391,
      "relish": 8392,
      "ribbons": 8393,
      "lowered": 8394,
      "detour": 8395,
      "region": 8396,
      "regalia": 8397,
      "deserts": 8398,
      "avocad": 8399,
      "jamming": 8400,
      "beanbag": 8401,
      "bloody": 8402,
      "trimming": 8403,
      "await": 8404,
      "bison": 8405,
      "keeper": 8406,
      "miami": 8407,
      "slender": 8408,
      "thought": 8409,
      "tortoises": 8410,
      "attentively": 8411,
      "expressions": 8412,
      "flea": 8413,
      "shoots": 8414,
      "decent": 8415,
      "orchids": 8416,
      "artistically": 8417,
      "majestic": 8418,
      "anything": 8419,
      "stride": 8420,
      "fixes": 8421,
      "seemingly": 8422,
      "branded": 8423,
      "admire": 8424,
      "looms": 8425,
      "automat": 8426,
      "badmint": 8427,
      "browse": 8428,
      "informal": 8429,
      "builds": 8430,
      "impro": 8431,
      "briefcases": 8432,
      "release": 8433,
      "releasing": 8434,
      "released": 8435,
      "segments": 8436,
      "pajama": 8437,
      "overst": 8438,
      "muzzle": 8439,
      "purchases": 8440,
      "purchasing": 8441,
      "appetizer": 8442,
      "exercising": 8443,
      "##isticated": 8444,
      "americans": 8445,
      "depicts": 8446,
      "maybe": 8447,
      "marshmallow": 8448,
      "fishermen": 8449,
      "rollerblading": 8450,
      "conveyer": 8451,
      "bold": 8452,
      "ferris": 8453,
      "ferns": 8454,
      "gigolo": 8455,
      "minimal": 8456,
      "vertically": 8457,
      "westmark": 8458,
      "zombies": 8459,
      "tongs": 8460,
      "launches": 8461,
      "reclines": 8462,
      "headscarves": 8463,
      "bridal": 8464,
      "flavors": 8465,
      "bulletin": 8466,
      "automobiles": 8467,
      "seniors": 8468,
      "wristband": 8469,
      "chiseling": 8470,
      "roasted": 8471,
      "holidays": 8472,
      "smoothie": 8473,
      "smoothies": 8474,
      "scores": 8475,
      "wallpapered": 8476,
      "peacock": 8477,
      "shadyside": 8478,
      "surgery": 8479,
      "ascending": 8480,
      "sunbathers": 8481,
      "canadian": 8482,
      "parasailers": 8483,
      "enthusiast": 8484,
      "enthusiastic": 8485,
      "crashes": 8486,
      "poured": 8487,
      "ankles": 8488,
      "atlanta": 8489,
      "lavatory": 8490,
      "succule": 8491,
      "successfully": 8492,
      "sloped": 8493,
      "feathered": 8494,
      "congratulations": 8495,
      "30th": 8496,
      "adobe": 8497,
      "adolesc": 8498,
      "crispy": 8499,
      "fourt": 8500,
      "missed": 8501,
      "nypd": 8502,
      "talent": 8503,
      "woolen": 8504,
      "fronts": 8505,
      "revealing": 8506,
      "scoop": 8507,
      "procession": 8508,
      "processor": 8509,
      "explaining": 8510,
      "concentrating": 8511,
      "interested": 8512,
      "exterior": 8513,
      "conditions": 8514,
      "blindfold": 8515,
      "blindfolded": 8516,
      "renovated": 8517,
      "skewers": 8518,
      "cylinder": 8519,
      "pantry": 8520,
      "source": 8521,
      "tumbling": 8522,
      "vulcan": 8523,
      "flanked": 8524,
      "pharmacist": 8525,
      "splits": 8526,
      "bronze": 8527,
      "investigating": 8528,
      "tricycles": 8529,
      "kabobs": 8530,
      "resembles": 8531,
      "dugout": 8532,
      "dreadlocks": 8533,
      "fetching": 8534,
      "hopping": 8535,
      "krispy": 8536,
      "lasagna": 8537,
      "oreos": 8538,
      "mandolin": 8539,
      "manufact": 8540,
      "shredding": 8541,
      "bodies": 8542,
      "traversing": 8543,
      "overhang": 8544,
      "grafitti": 8545,
      "windmill": 8546,
      "addresses": 8547,
      "residence": 8548,
      "quarters": 8549,
      "dramatically": 8550,
      "protruding": 8551,
      "daisies": 8552,
      "simulator": 8553,
      "google": 8554,
      "eagerly": 8555,
      "installing": 8556,
      "communicate": 8557,
      "breastfeeding": 8558,
      "kenya": 8559,
      "underside": 8560,
      "arabic": 8561,
      "darts": 8562,
      "dentist": 8563,
      "davidson": 8564,
      "fiddle": 8565,
      "gorge": 8566,
      "jalapen": 8567,
      "mongolian": 8568,
      "michigan": 8569,
      "nibbling": 8570,
      "ppk": 8571,
      "pelican": 8572,
      "roped": 8573,
      "sampling": 8574,
      "tangerines": 8575,
      "woven": 8576,
      "zipper": 8577,
      "##rints": 8578,
      "buggies": 8579,
      "skillfully": 8580,
      "surgeons": 8581,
      "wakeboarder": 8582,
      "spiderman": 8583,
      "procedure": 8584,
      "contraption": 8585,
      "apparently": 8586,
      "footprints": 8587,
      "explore": 8588,
      "typewriter": 8589,
      "primary": 8590,
      "cuddles": 8591,
      "detector": 8592,
      "architectural": 8593,
      "prairie": 8594,
      "motorola": 8595,
      "pamphlet": 8596,
      "ajar": 8597,
      "average": 8598,
      "astride": 8599,
      "civil": 8600,
      "duplicate": 8601,
      "gnar": 8602,
      "gilded": 8603,
      "grumpy": 8604,
      "housing": 8605,
      "husband": 8606,
      "illeg": 8607,
      "maze": 8608,
      "ollie": 8609,
      "pristine": 8610,
      "rasp": 8611,
      "sophisticated": 8612,
      "samsung": 8613,
      "tutu": 8614,
      "ugly": 8615,
      "would": 8616,
      "wrang": 8617,
      "insect": 8618,
      "inspired": 8619,
      "twenty": 8620,
      "pepsi": 8621,
      "beagle": 8622,
      "corona": 8623,
      "livestock": 8624,
      "leggings": 8625,
      "swiftly": 8626,
      "handwritten": 8627,
      "gamecube": 8628,
      "undergoing": 8629,
      "goblet": 8630,
      "arguing": 8631,
      "chevrolet": 8632,
      "peripher": 8633,
      "perhaps": 8634,
      "marinara": 8635,
      "modified": 8636,
      "bicyclers": 8637,
      "household": 8638,
      "unattended": 8639,
      "pavilion": 8640,
      "submarine": 8641,
      "milkshake": 8642,
      "pennsylvania": 8643,
      "seaweed": 8644,
      "approximately": 8645,
      "stovetop": 8646,
      "geometric": 8647,
      "crooked": 8648,
      "tortoiseshell": 8649,
      "badminton": 8650,
      "14": 8651,
      "34": 8652,
      "38": 8653,
      "48": 8654,
      "74": 8655,
      "85": 8656,
      "ale": 8657,
      "alo": 8658,
      "ari": 8659,
      "aside": 8660,
      "agg": 8661,
      "actor": 8662,
      "ber": 8663,
      "bris": 8664,
      "bins": 8665,
      "cb": 8666,
      "cries": 8667,
      "calls": 8668,
      "dre": 8669,
      "dying": 8670,
      "dru": 8671,
      "dell": 8672,
      "dign": 8673,
      "dub": 8674,
      "daring": 8675,
      "dart": 8676,
      "dork": 8677,
      "dapple": 8678,
      "dummy": 8679,
      "ditch": 8680,
      "era": 8681,
      "evil": 8682,
      "erase": 8683,
      "fal": 8684,
      "fond": 8685,
      "font": 8686,
      "ging": 8687,
      "gal": 8688,
      "gree": 8689,
      "gee": 8690,
      "gap": 8691,
      "gross": 8692,
      "grop": 8693,
      "gondo": 8694,
      "hil": 8695,
      "hell": 8696,
      "hous": 8697,
      "huts": 8698,
      "hound": 8699,
      "heeled": 8700,
      "hacks": 8701,
      "ii": 8702,
      "ir": 8703,
      "ide": 8704,
      "ivy": 8705,
      "ign": 8706,
      "ipad": 8707,
      "jou": 8708,
      "jane": 8709,
      "jour": 8710,
      "jac": 8711,
      "ket": 8712,
      "kher": 8713,
      "kale": 8714,
      "kart": 8715,
      "keeping": 8716,
      "lla": 8717,
      "lic": 8718,
      "lung": 8719,
      "lsu": 8720,
      "lumber": 8721,
      "mate": 8722,
      "mim": 8723,
      "might": 8724,
      "mine": 8725,
      "mice": 8726,
      "mits": 8727,
      "mering": 8728,
      "mike": 8729,
      "mouses": 8730,
      "mowed": 8731,
      "mardi": 8732,
      "nw": 8733,
      "netw": 8734,
      "nook": 8735,
      "nail": 8736,
      "nfl": 8737,
      "nylon": 8738,
      "our": 8739,
      "oars": 8740,
      "pom": 8741,
      "pesto": 8742,
      "rou": 8743,
      "rue": 8744,
      "rake": 8745,
      "rays": 8746,
      "rund": 8747,
      "russ": 8748,
      "ruff": 8749,
      "roping": 8750,
      "rounds": 8751,
      "rusting": 8752,
      "ranges": 8753,
      "sor": 8754,
      "sking": 8755,
      "sigh": 8756,
      "sick": 8757,
      "sari": 8758,
      "sights": 8759,
      "siding": 8760,
      "sided": 8761,
      "trou": 8762,
      "tear": 8763,
      "tell": 8764,
      "tips": 8765,
      "tests": 8766,
      "tshirt": 8767,
      "tier": 8768,
      "tipped": 8769,
      "vo": 8770,
      "vw": 8771,
      "val": 8772,
      "voc": 8773,
      "vines": 8774,
      "viny": 8775,
      "want": 8776,
      "wris": 8777,
      "wants": 8778,
      "wrought": 8779,
      "xyl": 8780,
      "xbox": 8781,
      "yol": 8782,
      "zo": 8783,
      "##iing": 8784,
      "##izz": 8785,
      "##iped": 8786,
      "##iful": 8787,
      "##iams": 8788,
      "##ead": 8789,
      "##eared": 8790,
      "##lor": 8791,
      "##long": 8792,
      "##loring": 8793,
      "##licking": 8794,
      "##dar": 8795,
      "##dding": 8796,
      "##dam": 8797,
      "##dant": 8798,
      "##dish": 8799,
      "##dged": 8800,
      "##dging": 8801,
      "##rill": 8802,
      "##ration": 8803,
      "##rings": 8804,
      "##aver": 8805,
      "##action": 8806,
      "##bull": 8807,
      "##cu": 8808,
      "##cla": 8809,
      "##col": 8810,
      "##cell": 8811,
      "##cove": 8812,
      "##cans": 8813,
      "##cuss": 8814,
      "##uary": 8815,
      "##uzu": 8816,
      "##tw": 8817,
      "##table": 8818,
      "##tish": 8819,
      "##tling": 8820,
      "##tons": 8821,
      "##vice": 8822,
      "##vation": 8823,
      "##voy": 8824,
      "##nal": 8825,
      "##nas": 8826,
      "##nown": 8827,
      "##nie": 8828,
      "##nouris": 8829,
      "##yo": 8830,
      "##yaking": 8831,
      "##xury": 8832,
      "##suits": 8833,
      "##pa": 8834,
      "##pair": 8835,
      "##ports": 8836,
      "##hor": 8837,
      "##het": 8838,
      "##hib": 8839,
      "##gher": 8840,
      "##gni": 8841,
      "##gular": 8842,
      "##wning": 8843,
      "##water": 8844,
      "##fed": 8845,
      "##face": 8846,
      "##falf": 8847,
      "##fier": 8848,
      "##kis": 8849,
      "##known": 8850,
      "##mpt": 8851,
      "##jack": 8852,
      "##50": 8853,
      "##iners": 8854,
      "##inct": 8855,
      "##inine": 8856,
      "##inos": 8857,
      "##itation": 8858,
      "##itive": 8859,
      "##itching": 8860,
      "##anna": 8861,
      "##erature": 8862,
      "thre": 8863,
      "thro": 8864,
      "thrill": 8865,
      "##lest": 8866,
      "inc": 8867,
      "inh": 8868,
      "ink": 8869,
      "inver": 8870,
      "incor": 8871,
      "inser": 8872,
      "##real": 8873,
      "##rets": 8874,
      "##repair": 8875,
      "##regular": 8876,
      "onward": 8877,
      "anx": 8878,
      "##atter": 8879,
      "##atos": 8880,
      "##ara": 8881,
      "##rots": 8882,
      "##roni": 8883,
      "##royed": 8884,
      "##aloupe": 8885,
      "##ometer": 8886,
      "stro": 8887,
      "stood": 8888,
      "stere": 8889,
      "stages": 8890,
      "stray": 8891,
      "##edian": 8892,
      "##eddar": 8893,
      "toront": 8894,
      "toasting": 8895,
      "isuzu": 8896,
      "##ona": 8897,
      "##onic": 8898,
      "##onds": 8899,
      "##irates": 8900,
      "##ory": 8901,
      "##oramic": 8902,
      "##etah": 8903,
      "##etooth": 8904,
      "manner": 8905,
      "mango": 8906,
      "##oup": 8907,
      "##chment": 8908,
      "##ism": 8909,
      "##oplane": 8910,
      "##oos": 8911,
      "##ilant": 8912,
      "##ilation": 8913,
      "##eline": 8914,
      "##rador": 8915,
      "twisting": 8916,
      "twisted": 8917,
      "##otation": 8918,
      "##oling": 8919,
      "##olished": 8920,
      "pecks": 8921,
      "peaking": 8922,
      "peels": 8923,
      "##gee": 8924,
      "##iculous": 8925,
      "shar": 8926,
      "shish": 8927,
      "shined": 8928,
      "shaves": 8929,
      "shorn": 8930,
      "shorter": 8931,
      "peoples": 8932,
      "##igues": 8933,
      "becomes": 8934,
      "##abs": 8935,
      "buoy": 8936,
      "boom": 8937,
      "##ada": 8938,
      "cha": 8939,
      "chor": 8940,
      "chun": 8941,
      "chess": 8942,
      "chute": 8943,
      "cheddar": 8944,
      "dove": 8945,
      "##ebe": 8946,
      "##abled": 8947,
      "stress": 8948,
      "frolicking": 8949,
      "frowning": 8950,
      "robed": 8951,
      "holly": 8952,
      "grouch": 8953,
      "fiery": 8954,
      "fixed": 8955,
      "sombr": 8956,
      "ply": 8957,
      "plun": 8958,
      "plus": 8959,
      "smal": 8960,
      "smack": 8961,
      "smother": 8962,
      "outs": 8963,
      "outward": 8964,
      "outlin": 8965,
      "parap": 8966,
      "parlor": 8967,
      "parrots": 8968,
      "parchment": 8969,
      "lace": 8970,
      "lakes": 8971,
      "carn": 8972,
      "carves": 8973,
      "reddish": 8974,
      "##aining": 8975,
      "batters": 8976,
      "battling": 8977,
      "##ssle": 8978,
      "cath": 8979,
      "catering": 8980,
      "riot": 8981,
      "##veled": 8982,
      "piers": 8983,
      "flick": 8984,
      "flooding": 8985,
      "##store": 8986,
      "snowcap": 8987,
      "grate": 8988,
      "grating": 8989,
      "grins": 8990,
      "grater": 8991,
      "reind": 8992,
      "requ": 8993,
      "reco": 8994,
      "recess": 8995,
      "##aya": 8996,
      "basins": 8997,
      "playpen": 8998,
      "menac": 8999,
      "closes": 9000,
      "closer": 9001,
      "##phia": 9002,
      "##inkled": 9003,
      "##ctures": 9004,
      "##ctuary": 9005,
      "phila": 9006,
      "phrase": 9007,
      "tend": 9008,
      "forth": 9009,
      "forrest": 9010,
      "##nister": 9011,
      "##umbers": 9012,
      "surfboarding": 9013,
      "surfaces": 9014,
      "backward": 9015,
      "backfl": 9016,
      "coil": 9017,
      "coins": 9018,
      "coord": 9019,
      "cocon": 9020,
      "bathrobe": 9021,
      "combo": 9022,
      "combing": 9023,
      "comedian": 9024,
      "ballon": 9025,
      "poke": 9026,
      "poker": 9027,
      "pockets": 9028,
      "##tles": 9029,
      "lives": 9030,
      "lizard": 9031,
      "conce": 9032,
      "confe": 9033,
      "conser": 9034,
      "convoy": 9035,
      "overla": 9036,
      "overcoat": 9037,
      "pizzeria": 9038,
      "alot": 9039,
      "alarm": 9040,
      "alcove": 9041,
      "alfalf": 9042,
      "eatery": 9043,
      "waking": 9044,
      "heel": 9045,
      "heater": 9046,
      "least": 9047,
      "spare": 9048,
      "spike": 9049,
      "spars": 9050,
      "splayed": 9051,
      "disks": 9052,
      "dishing": 9053,
      "disrepair": 9054,
      "disabled": 9055,
      "swi": 9056,
      "swir": 9057,
      "swall": 9058,
      "handful": 9059,
      "grav": 9060,
      "motorcyl": 9061,
      "slit": 9062,
      "sloping": 9063,
      "toiled": 9064,
      "trump": 9065,
      "scatter": 9066,
      "raking": 9067,
      "ragged": 9068,
      "##affe": 9069,
      "glassed": 9070,
      "glassware": 9071,
      "complic": 9072,
      "composite": 9073,
      "composed": 9074,
      "##resso": 9075,
      "##resses": 9076,
      "client": 9077,
      "##shing": 9078,
      "##shot": 9079,
      "##shirts": 9080,
      "##estry": 9081,
      "deo": 9082,
      "death": 9083,
      "##agne": 9084,
      "offered": 9085,
      "tequ": 9086,
      "teac": 9087,
      "soci": 9088,
      "fired": 9089,
      "firemen": 9090,
      "##vesting": 9091,
      "suited": 9092,
      "cowgirl": 9093,
      "treks": 9094,
      "eachother": 9095,
      "appla": 9096,
      "bowing": 9097,
      "bowtie": 9098,
      "##ourse": 9099,
      "diver": 9100,
      "prec": 9101,
      "prey": 9102,
      "prescri": 9103,
      "enorm": 9104,
      "##dock": 9105,
      "skylight": 9106,
      "midday": 9107,
      "drifting": 9108,
      "bangs": 9109,
      "banjo": 9110,
      "banquet": 9111,
      "bannister": 9112,
      "suns": 9113,
      "sunflower": 9114,
      "studded": 9115,
      "showed": 9116,
      "mountainside": 9117,
      "oceans": 9118,
      "dirtb": 9119,
      "chew": 9120,
      "cheered": 9121,
      "cheetah": 9122,
      "add": 9123,
      "adding": 9124,
      "adop": 9125,
      "adds": 9126,
      "additional": 9127,
      "haiti": 9128,
      "hazy": 9129,
      "hazard": 9130,
      "hilltop": 9131,
[...]
